{
  "merges": [
    [
      "-",
      "-"
    ],
    [
      ",",
      "</w>"
    ],
    [
      "i",
      "n"
    ],
    [
      "--",
      "--"
    ],
    [
      ")",
      "</w>"
    ],
    [
      "e",
      "</w>"
    ],
    [
      "t",
      "</w>"
    ],
    [
      ":",
      "</w>"
    ],
    [
      "o",
      "r"
    ],
    [
      "t",
      "e"
    ],
    [
      "s",
      "e"
    ],
    [
      "s",
      "</w>"
    ],
    [
      "o",
      "n"
    ],
    [
      "r",
      "e"
    ],
    [
      "=",
      "</w>"
    ],
    [
      "a",
      "r"
    ],
    [
      "t",
      "h"
    ],
    [
      "s",
      "t"
    ],
    [
      ">",
      ">"
    ],
    [
      "d",
      "e"
    ],
    [
      "----",
      "----"
    ],
    [
      "l",
      "e"
    ],
    [
      "f",
      "</w>"
    ],
    [
      "t",
      "i"
    ],
    [
      ">",
      "</w>"
    ],
    [
      "#",
      "#"
    ],
    [
      "a",
      "l"
    ],
    [
      "r",
      "a"
    ],
    [
      "\"",
      "\""
    ],
    [
      "d",
      "</w>"
    ],
    [
      "e",
      "r"
    ],
    [
      "e",
      "n"
    ],
    [
      "u",
      "r"
    ],
    [
      "_",
      "_"
    ],
    [
      "ti",
      "on"
    ],
    [
      "se",
      "l"
    ],
    [
      "r",
      "o"
    ],
    [
      "sel",
      "f"
    ],
    [
      "l",
      "i"
    ],
    [
      "n",
      "</w>"
    ],
    [
      ">>",
      "></w>"
    ],
    [
      "m",
      "p"
    ],
    [
      "c",
      "o"
    ],
    [
      "th",
      "e</w>"
    ],
    [
      "--------",
      "--------"
    ],
    [
      "a",
      "t"
    ],
    [
      "\"",
      "</w>"
    ],
    [
      "#",
      "</w>"
    ],
    [
      "d",
      "_"
    ],
    [
      "t",
      "o"
    ],
    [
      ".",
      "</w>"
    ],
    [
      "t",
      "("
    ],
    [
      "m",
      "</w>"
    ],
    [
      "##",
      "##"
    ],
    [
      "a",
      "c"
    ],
    [
      "a",
      "n"
    ],
    [
      "t",
      "_"
    ],
    [
      "t",
      "ur"
    ],
    [
      "]",
      "</w>"
    ],
    [
      "u",
      "n"
    ],
    [
      "m",
      "e"
    ],
    [
      "l",
      "o"
    ],
    [
      "in",
      "g"
    ],
    [
      "y",
      "</w>"
    ],
    [
      "n",
      "o"
    ],
    [
      "a",
      "</w>"
    ],
    [
      "i",
      "f</w>"
    ],
    [
      "re",
      "tur"
    ],
    [
      "k",
      "e"
    ],
    [
      "or",
      "</w>"
    ],
    [
      "a",
      "s"
    ],
    [
      "\"\"",
      "\"</w>"
    ],
    [
      "self",
      "."
    ],
    [
      "c",
      "h"
    ],
    [
      "-",
      "></w>"
    ],
    [
      "s",
      "or"
    ],
    [
      "g",
      "e"
    ],
    [
      "i",
      "s</w>"
    ],
    [
      "u",
      "l"
    ],
    [
      "s",
      "i"
    ],
    [
      "de",
      "f</w>"
    ],
    [
      "retur",
      "n</w>"
    ],
    [
      "d",
      "i"
    ],
    [
      "0",
      ",</w>"
    ],
    [
      ")",
      ":</w>"
    ],
    [
      "l",
      "le"
    ],
    [
      "st",
      "r"
    ],
    [
      "i",
      "mp"
    ],
    [
      "lle",
      "c"
    ],
    [
      "e",
      "x"
    ],
    [
      "co",
      "llec"
    ],
    [
      "f",
      "or</w>"
    ],
    [
      "p",
      "e"
    ],
    [
      "or",
      "t</w>"
    ],
    [
      "c",
      "e"
    ],
    [
      "(",
      ")</w>"
    ],
    [
      "imp",
      "ort</w>"
    ],
    [
      "f",
      "ro"
    ],
    [
      "u",
      "e"
    ],
    [
      "N",
      "on"
    ],
    [
      "f",
      "i"
    ],
    [
      "ar",
      "g"
    ],
    [
      "li",
      "st"
    ],
    [
      "to",
      "</w>"
    ],
    [
      "\"",
      ")</w>"
    ],
    [
      "v",
      "e"
    ],
    [
      "a",
      "d"
    ],
    [
      "o",
      "f</w>"
    ],
    [
      "-",
      "</w>"
    ],
    [
      "m",
      "o"
    ],
    [
      "in",
      "t"
    ],
    [
      "sor",
      "te"
    ],
    [
      "fro",
      "m</w>"
    ],
    [
      "\"",
      ",</w>"
    ],
    [
      "p",
      "."
    ],
    [
      "####",
      "####"
    ],
    [
      "m",
      "a"
    ],
    [
      "p",
      "r"
    ],
    [
      "v",
      "al"
    ],
    [
      "a",
      "b"
    ],
    [
      "(",
      "self"
    ],
    [
      "d",
      "at"
    ],
    [
      "i",
      "te"
    ],
    [
      "----------------",
      "----------------"
    ],
    [
      "l",
      "</w>"
    ],
    [
      "ac",
      "k"
    ],
    [
      "1",
      ",</w>"
    ],
    [
      "Non",
      "e"
    ],
    [
      "collec",
      "tion"
    ],
    [
      "c",
      "ur"
    ],
    [
      "lin",
      "ke"
    ],
    [
      "s",
      "."
    ],
    [
      "d",
      "o"
    ],
    [
      "p",
      "o"
    ],
    [
      "h",
      "e"
    ],
    [
      ")",
      ")</w>"
    ],
    [
      "p",
      "u"
    ],
    [
      "p",
      "ara"
    ],
    [
      "re",
      "s"
    ],
    [
      "linke",
      "d_"
    ],
    [
      "=",
      "=</w>"
    ],
    [
      "]",
      ",</w>"
    ],
    [
      "0",
      "0"
    ],
    [
      "no",
      "t</w>"
    ],
    [
      "n",
      "p."
    ],
    [
      "w",
      "i"
    ],
    [
      "t",
      "."
    ],
    [
      "3",
      ",</w>"
    ],
    [
      "d",
      "("
    ],
    [
      "m",
      "b"
    ],
    [
      "r",
      "i"
    ],
    [
      "an",
      "d</w>"
    ],
    [
      "1",
      "</w>"
    ],
    [
      "i",
      "</w>"
    ],
    [
      "5",
      ",</w>"
    ],
    [
      "l",
      "as"
    ],
    [
      "un",
      "c"
    ],
    [
      "f",
      "unc"
    ],
    [
      "s",
      ":</w>"
    ],
    [
      "\"",
      ":</w>"
    ],
    [
      "+",
      "</w>"
    ],
    [
      "t",
      "y"
    ],
    [
      "a",
      "p"
    ],
    [
      "s",
      "("
    ],
    [
      "u",
      "p"
    ],
    [
      "o",
      "u"
    ],
    [
      "=",
      "="
    ],
    [
      "e",
      "l"
    ],
    [
      "s",
      ",</w>"
    ],
    [
      ")",
      "."
    ],
    [
      "c",
      "k"
    ],
    [
      "n",
      "a"
    ],
    [
      "ar",
      "ch"
    ],
    [
      "t",
      "a"
    ],
    [
      "n",
      "e"
    ],
    [
      "0",
      "</w>"
    ],
    [
      "n",
      "u"
    ],
    [
      "cur",
      "si"
    ],
    [
      "E",
      "r"
    ],
    [
      "T",
      "r"
    ],
    [
      "p",
      "_"
    ],
    [
      "]",
      ")</w>"
    ],
    [
      "re",
      "cursi"
    ],
    [
      "res",
      "ul"
    ],
    [
      "o",
      "l"
    ],
    [
      "s",
      "h"
    ],
    [
      "in",
      "dex"
    ],
    [
      "n",
      "_"
    ],
    [
      "2",
      ",</w>"
    ],
    [
      "'",
      ",</w>"
    ],
    [
      "sorte",
      "d_"
    ],
    [
      "ve",
      "("
    ],
    [
      "ite",
      "m"
    ],
    [
      "g",
      "h"
    ],
    [
      "c",
      "las"
    ],
    [
      "y",
      "_"
    ],
    [
      "R",
      "e"
    ],
    [
      "`",
      "`"
    ],
    [
      "*",
      "</w>"
    ],
    [
      "--",
      "-</w>"
    ],
    [
      "Er",
      "ror"
    ],
    [
      "ar",
      "ra"
    ],
    [
      "i",
      "d"
    ],
    [
      "0",
      ")</w>"
    ],
    [
      "s",
      "_"
    ],
    [
      "th",
      "</w>"
    ],
    [
      "in",
      "ser"
    ],
    [
      "o",
      "ther"
    ],
    [
      "se",
      "arch"
    ],
    [
      "ge",
      "("
    ],
    [
      "k",
      "</w>"
    ],
    [
      "[",
      "0,</w>"
    ],
    [
      "di",
      "c"
    ],
    [
      ")",
      ",</w>"
    ],
    [
      "resul",
      "t</w>"
    ],
    [
      "na",
      "me"
    ],
    [
      "(",
      "\""
    ],
    [
      "x",
      "</w>"
    ],
    [
      "arra",
      "y"
    ],
    [
      "w",
      "or"
    ],
    [
      "########",
      "########"
    ],
    [
      "f",
      "or"
    ],
    [
      "t",
      "s</w>"
    ],
    [
      "w",
      "rap"
    ],
    [
      "(self",
      ",</w>"
    ],
    [
      "x",
      "_"
    ],
    [
      "ro",
      "o"
    ],
    [
      "p",
      "</w>"
    ],
    [
      "len",
      "("
    ],
    [
      "}",
      "</w>"
    ],
    [
      "w",
      "ar"
    ],
    [
      "sorted_",
      "collection"
    ],
    [
      "i",
      "l"
    ],
    [
      "z",
      "e"
    ],
    [
      "N",
      "o"
    ],
    [
      "al",
      "l</w>"
    ],
    [
      "None",
      ":</w>"
    ],
    [
      "linked_",
      "list."
    ],
    [
      "le",
      "f"
    ],
    [
      "no",
      "de"
    ],
    [
      "list",
      "["
    ],
    [
      "in",
      "pu"
    ],
    [
      "b",
      "inar"
    ],
    [
      "ty",
      "pe"
    ],
    [
      "ing",
      "</w>"
    ],
    [
      "t",
      ":</w>"
    ],
    [
      "e",
      "d"
    ],
    [
      "ke",
      "y"
    ],
    [
      "ri",
      "gh"
    ],
    [
      "7",
      ",</w>"
    ],
    [
      "al",
      "l"
    ],
    [
      "[",
      "\""
    ],
    [
      "para",
      "m</w>"
    ],
    [
      "mb",
      "er"
    ],
    [
      "s",
      "u"
    ],
    [
      "ad",
      "d_"
    ],
    [
      "wi",
      "th</w>"
    ],
    [
      "m",
      "_"
    ],
    [
      "2",
      "</w>"
    ],
    [
      "s",
      ")</w>"
    ],
    [
      "t",
      "ra"
    ],
    [
      "b",
      "lo"
    ],
    [
      "do",
      "c"
    ],
    [
      "t",
      ")</w>"
    ],
    [
      "/",
      "</w>"
    ],
    [
      "1",
      ")</w>"
    ],
    [
      "b",
      "u"
    ],
    [
      "c",
      "i"
    ],
    [
      "nu",
      "mber"
    ],
    [
      ".",
      "."
    ],
    [
      "b",
      "e</w>"
    ],
    [
      "fi",
      "b"
    ],
    [
      "th",
      "o"
    ],
    [
      "f",
      "a"
    ],
    [
      ":",
      "param</w>"
    ],
    [
      "ran",
      "ge("
    ],
    [
      "v",
      "</w>"
    ],
    [
      "val",
      "ue"
    ],
    [
      "fa",
      "ul"
    ],
    [
      "s",
      "a"
    ],
    [
      "me",
      "tho"
    ],
    [
      "binar",
      "y_"
    ],
    [
      "Tr",
      "ue</w>"
    ],
    [
      "v",
      "o"
    ],
    [
      "n",
      "d"
    ],
    [
      "]",
      ":</w>"
    ],
    [
      "p",
      "li"
    ],
    [
      "<",
      "</w>"
    ],
    [
      "t",
      "r"
    ],
    [
      "V",
      "al"
    ],
    [
      "nd",
      "array"
    ],
    [
      "blo",
      "ck"
    ],
    [
      "ter",
      "</w>"
    ],
    [
      "e",
      "c"
    ],
    [
      "ra",
      "i"
    ],
    [
      "'",
      "</w>"
    ],
    [
      "g",
      "."
    ],
    [
      "f",
      "lo"
    ],
    [
      "de",
      "faul"
    ],
    [
      "np.",
      "ndarray"
    ],
    [
      "Val",
      "ue"
    ],
    [
      "(",
      "1"
    ],
    [
      "5",
      "5"
    ],
    [
      "int",
      ",</w>"
    ],
    [
      "fib",
      "_"
    ],
    [
      "w",
      "</w>"
    ],
    [
      "'",
      ":</w>"
    ],
    [
      "l",
      "a"
    ],
    [
      "b",
      "j"
    ],
    [
      "g",
      "i"
    ],
    [
      "f",
      "\""
    ],
    [
      "inser",
      "t_"
    ],
    [
      "{",
      "'"
    ],
    [
      "p",
      "y"
    ],
    [
      "ce",
      "p"
    ],
    [
      "\"\"",
      "\""
    ],
    [
      "Value",
      "Error"
    ],
    [
      "c",
      "</w>"
    ],
    [
      "b",
      "o"
    ],
    [
      "se",
      ":</w>"
    ],
    [
      "arg",
      "s."
    ],
    [
      "clas",
      "s</w>"
    ],
    [
      "rai",
      "se</w>"
    ],
    [
      "o",
      "bj"
    ],
    [
      "u",
      "men"
    ],
    [
      "--------------------------------",
      "--------------------------------"
    ],
    [
      "3",
      "</w>"
    ],
    [
      "T",
      "he</w>"
    ],
    [
      "k",
      "_"
    ],
    [
      "\\",
      "n"
    ],
    [
      "th",
      "at</w>"
    ],
    [
      "Re",
      "tur"
    ],
    [
      "1",
      "5"
    ],
    [
      "ta",
      "il"
    ],
    [
      "F",
      "al"
    ],
    [
      "w",
      "h"
    ],
    [
      "..",
      ".</w>"
    ],
    [
      "p",
      "a"
    ],
    [
      "m",
      "."
    ],
    [
      "o",
      "</w>"
    ],
    [
      "0",
      "."
    ],
    [
      "b",
      "</w>"
    ],
    [
      "ser",
      "t</w>"
    ],
    [
      "t",
      "="
    ],
    [
      "4",
      ",</w>"
    ],
    [
      "__",
      "</w>"
    ],
    [
      "i",
      "t</w>"
    ],
    [
      "t",
      "up"
    ],
    [
      "stan",
      "ce"
    ],
    [
      "b",
      "e"
    ],
    [
      "==",
      "=="
    ],
    [
      "t",
      ",</w>"
    ],
    [
      "fi",
      "r"
    ],
    [
      "i",
      "r"
    ],
    [
      "1",
      "0,</w>"
    ],
    [
      "arg",
      "umen"
    ],
    [
      "in",
      "i"
    ],
    [
      "s",
      "["
    ],
    [
      "F",
      "F"
    ],
    [
      "P",
      "T"
    ],
    [
      "at",
      "t"
    ],
    [
      "cor",
      "pu"
    ],
    [
      "sor",
      "t_"
    ],
    [
      "E",
      "x"
    ],
    [
      "Tr",
      "ue"
    ],
    [
      "as",
      "sert</w>"
    ],
    [
      "wor",
      "d"
    ],
    [
      "to",
      "ken"
    ],
    [
      "w",
      "er"
    ],
    [
      "No",
      "de"
    ],
    [
      "i",
      "s_"
    ],
    [
      "tex",
      "t</w>"
    ],
    [
      "vo",
      "c"
    ],
    [
      "le",
      "_"
    ],
    [
      "recursi",
      "ve("
    ],
    [
      "__",
      "name"
    ],
    [
      "co",
      "m"
    ],
    [
      "g",
      "</w>"
    ],
    [
      "--------",
      "---</w>"
    ],
    [
      "para",
      "me"
    ],
    [
      "2",
      ")</w>"
    ],
    [
      "p",
      "h"
    ],
    [
      ")",
      "}"
    ],
    [
      "v",
      "i"
    ],
    [
      "l",
      "n"
    ],
    [
      "o",
      "p_"
    ],
    [
      "op_",
      "result</w>"
    ],
    [
      "q",
      "u"
    ],
    [
      "si",
      "ze"
    ],
    [
      "linked_list.",
      "insert_"
    ],
    [
      "f",
      "f"
    ],
    [
      "mp",
      "le"
    ],
    [
      "ti",
      "me"
    ],
    [
      "S",
      "e"
    ],
    [
      "0",
      ":</w>"
    ],
    [
      "|",
      "</w>"
    ],
    [
      "G",
      "PT"
    ],
    [
      "k",
      "."
    ],
    [
      "----------------------------------------------------------------",
      "-----------</w>"
    ],
    [
      "wrap",
      "per"
    ],
    [
      "l",
      "y</w>"
    ],
    [
      "te",
      "_"
    ],
    [
      "None",
      ",</w>"
    ],
    [
      "ex",
      "p_"
    ],
    [
      "iterati",
      "ve("
    ],
    [
      "m",
      "u"
    ],
    [
      "y",
      ":</w>"
    ],
    [
      "func",
      "tion</w>"
    ],
    [
      "w",
      "_"
    ],
    [
      "node",
      "."
    ],
    [
      "e",
      "mp"
    ],
    [
      "al",
      "ph"
    ],
    [
      "bu",
      "b"
    ],
    [
      "bub",
      "b"
    ],
    [
      "p",
      "("
    ],
    [
      "b",
      "y</w>"
    ],
    [
      "b",
      "i"
    ],
    [
      "obj",
      "ec"
    ],
    [
      "voc",
      "ab"
    ],
    [
      "[",
      "]</w>"
    ],
    [
      "1",
      "."
    ],
    [
      "doc",
      "te"
    ],
    [
      "mo",
      "st</w>"
    ],
    [
      "el",
      "se:</w>"
    ],
    [
      "c",
      "all</w>"
    ],
    [
      "search",
      "("
    ],
    [
      "binary_",
      "exp_"
    ],
    [
      "2",
      "."
    ],
    [
      "s",
      "="
    ],
    [
      "-",
      "1"
    ],
    [
      "ve",
      "_"
    ],
    [
      "roo",
      "t</w>"
    ],
    [
      "``",
      "</w>"
    ],
    [
      "c",
      "f"
    ],
    [
      "P",
      "E"
    ],
    [
      "b",
      "ack</w>"
    ],
    [
      "5",
      ")</w>"
    ],
    [
      "str",
      "("
    ],
    [
      "data",
      "_"
    ],
    [
      "war",
      "d("
    ],
    [
      "bubb",
      "le_"
    ],
    [
      "bubble_",
      "sort_"
    ],
    [
      "h",
      "is</w>"
    ],
    [
      "linked_",
      "list</w>"
    ],
    [
      "(",
      "</w>"
    ],
    [
      "self.",
      "__"
    ],
    [
      "n",
      ":</w>"
    ],
    [
      "__",
      "ma"
    ],
    [
      "lef",
      "t</w>"
    ],
    [
      "<",
      "=</w>"
    ],
    [
      "parame",
      "ter"
    ],
    [
      "ex",
      "ponen"
    ],
    [
      "type",
      "="
    ],
    [
      "e",
      "t"
    ],
    [
      "ou",
      "t</w>"
    ],
    [
      "pre",
      "v</w>"
    ],
    [
      "h",
      "i"
    ],
    [
      "lo",
      "s"
    ],
    [
      "para",
      "m"
    ],
    [
      "A",
      "n"
    ],
    [
      "ce",
      "s"
    ],
    [
      "T",
      "his</w>"
    ],
    [
      "s",
      "pli"
    ],
    [
      "ex",
      "cep"
    ],
    [
      "Retur",
      "n</w>"
    ],
    [
      "s",
      "y"
    ],
    [
      "mo",
      "del"
    ],
    [
      "ou",
      "t_"
    ],
    [
      "val",
      "_"
    ],
    [
      "or",
      "der"
    ],
    [
      "ele",
      "men"
    ],
    [
      "s",
      ":"
    ],
    [
      "T",
      "y"
    ],
    [
      "k",
      "i"
    ],
    [
      "%",
      "</w>"
    ],
    [
      "4",
      "</w>"
    ],
    [
      "righ",
      "t</w>"
    ],
    [
      "################",
      "################"
    ],
    [
      "fir",
      "st</w>"
    ],
    [
      "Trace",
      "back</w>"
    ],
    [
      "(",
      "most</w>"
    ],
    [
      "recen",
      "t</w>"
    ],
    [
      "last",
      "):</w>"
    ],
    [
      "g",
      "ati"
    ],
    [
      "m",
      "("
    ],
    [
      "5",
      "</w>"
    ],
    [
      "pri",
      "me"
    ],
    [
      "ma",
      "x"
    ],
    [
      "he",
      "ad"
    ],
    [
      "r",
      "y"
    ],
    [
      "add_",
      "argumen"
    ],
    [
      "L",
      "E"
    ],
    [
      "u",
      "sing</w>"
    ],
    [
      "h",
      "t"
    ],
    [
      "ne",
      "gati"
    ],
    [
      "nex",
      "t</w>"
    ],
    [
      "S",
      "</w>"
    ],
    [
      "item",
      ":</w>"
    ],
    [
      "ry",
      "p"
    ],
    [
      "c",
      "l"
    ],
    [
      "defaul",
      "t="
    ],
    [
      "add_argumen",
      "t(\""
    ],
    [
      "add_argument(\"",
      "--"
    ],
    [
      "le",
      "["
    ],
    [
      "__name",
      "__</w>"
    ],
    [
      "list[",
      "int"
    ],
    [
      "*",
      "*"
    ],
    [
      "c",
      "ache"
    ],
    [
      "linked_list.insert_",
      "tail"
    ],
    [
      "in",
      "("
    ],
    [
      "cur",
      "ren"
    ],
    [
      "15",
      "],</w>"
    ],
    [
      "et",
      "c"
    ],
    [
      "p.",
      "add_argument(\"--"
    ],
    [
      "P",
      "y"
    ],
    [
      "un",
      "sorted"
    ],
    [
      "print(",
      "f\""
    ],
    [
      "sor",
      "t("
    ],
    [
      "0",
      "]</w>"
    ],
    [
      "b",
      "ack"
    ],
    [
      "Ty",
      "pe"
    ],
    [
      "L",
      "i"
    ],
    [
      "m",
      "i"
    ],
    [
      "mu",
      "st</w>"
    ],
    [
      "__",
      "ini"
    ],
    [
      "3",
      ")</w>"
    ],
    [
      "_",
      "h"
    ],
    [
      "T",
      ",</w>"
    ],
    [
      "lo",
      "gi"
    ],
    [
      "g",
      "ori"
    ],
    [
      "gori",
      "th"
    ],
    [
      "1",
      "]</w>"
    ],
    [
      "se",
      "quen"
    ],
    [
      "\"",
      "__ma"
    ],
    [
      "\"__ma",
      "in__"
    ],
    [
      "\"__main__",
      "\":</w>"
    ],
    [
      "ValueError",
      ":</w>"
    ],
    [
      "other",
      "</w>"
    ],
    [
      "po",
      "int</w>"
    ],
    [
      "w",
      "e"
    ],
    [
      "u",
      "sed</w>"
    ],
    [
      "(",
      "B"
    ],
    [
      "metho",
      "d"
    ],
    [
      "s",
      "c"
    ],
    [
      "y",
      "er"
    ],
    [
      "l",
      "r"
    ],
    [
      "al",
      "gorith"
    ],
    [
      "[",
      "-"
    ],
    [
      "C",
      "o"
    ],
    [
      ")",
      "]</w>"
    ],
    [
      "y",
      ",</w>"
    ],
    [
      "}",
      "\")</w>"
    ],
    [
      "y",
      "i"
    ],
    [
      "yi",
      "el"
    ],
    [
      "al",
      "_"
    ],
    [
      "stance",
      "("
    ],
    [
      "fro",
      "m_"
    ],
    [
      "Fal",
      "se"
    ],
    [
      "mo",
      "d"
    ],
    [
      "o",
      "d"
    ],
    [
      "str",
      ",</w>"
    ],
    [
      "r",
      "n"
    ],
    [
      "e",
      "s</w>"
    ],
    [
      "ch",
      "</w>"
    ],
    [
      "ht",
      "t"
    ],
    [
      "/",
      "/"
    ],
    [
      "(self",
      ")</w>"
    ],
    [
      "emp",
      "ty"
    ],
    [
      "S",
      "tack"
    ],
    [
      "bi",
      "sec"
    ],
    [
      "x",
      ",</w>"
    ],
    [
      "o",
      "p"
    ],
    [
      "su",
      "b"
    ],
    [
      "T",
      "o"
    ],
    [
      "6",
      ",</w>"
    ],
    [
      "=",
      "\""
    ],
    [
      "excep",
      "t</w>"
    ],
    [
      "I",
      "n"
    ],
    [
      "t__",
      "(self,</w>"
    ],
    [
      "ValueError",
      "(\""
    ],
    [
      "(",
      "["
    ],
    [
      "b",
      "y"
    ],
    [
      "ne",
      "w_"
    ],
    [
      "oul",
      "d</w>"
    ],
    [
      "r",
      "/"
    ],
    [
      "line",
      "ar"
    ],
    [
      "x_",
      "ln"
    ],
    [
      "f",
      "c"
    ],
    [
      "To",
      "ken"
    ],
    [
      "_",
      "00"
    ],
    [
      "\"",
      ")."
    ],
    [
      "'",
      "s</w>"
    ],
    [
      "con",
      "ta"
    ],
    [
      "func",
      "tion"
    ],
    [
      "htt",
      "p"
    ],
    [
      "Se",
      "arch"
    ],
    [
      "e",
      "("
    ],
    [
      "ver",
      "bo"
    ],
    [
      "\"",
      "]</w>"
    ],
    [
      "c",
      "t"
    ],
    [
      "b",
      "c"
    ],
    [
      "n_",
      "e"
    ],
    [
      "in",
      "f"
    ],
    [
      "tex",
      "t)</w>"
    ],
    [
      "other",
      "):</w>"
    ],
    [
      "Py",
      "thon</w>"
    ],
    [
      "ap",
      "pend("
    ],
    [
      "inpu",
      "t(\""
    ],
    [
      "E",
      "n"
    ],
    [
      "number",
      "s</w>"
    ],
    [
      "al",
      "c"
    ],
    [
      "F",
      "i"
    ],
    [
      "Fi",
      "bonac"
    ],
    [
      "wi",
      "ki"
    ],
    [
      "i",
      "sin"
    ],
    [
      "isin",
      "stance("
    ],
    [
      ".",
      "j"
    ],
    [
      "B",
      "inary"
    ],
    [
      "Binary",
      "Search"
    ],
    [
      "BinarySearch",
      "Tre"
    ],
    [
      "la",
      "z"
    ],
    [
      "un",
      "i"
    ],
    [
      "e",
      "p"
    ],
    [
      "pa",
      "ir"
    ],
    [
      "sorted_collection",
      "["
    ],
    [
      "x",
      "."
    ],
    [
      "a",
      "m"
    ],
    [
      "\"",
      "/"
    ],
    [
      "ch",
      "un"
    ],
    [
      "token",
      "i"
    ],
    [
      "collection",
      "["
    ],
    [
      "te",
      "st"
    ],
    [
      "1",
      "0"
    ],
    [
      "number",
      "</w>"
    ],
    [
      "linked_list.insert_tail",
      "(\""
    ],
    [
      "inpu",
      "t_"
    ],
    [
      "D",
      "i"
    ],
    [
      "to",
      "tal_"
    ],
    [
      "out_",
      "dir"
    ],
    [
      "lin",
      "k_"
    ],
    [
      "i",
      "]</w>"
    ],
    [
      "arg",
      "s,</w>"
    ],
    [
      "recursi",
      "ve_"
    ],
    [
      "True",
      ")</w>"
    ],
    [
      "nex",
      "t_"
    ],
    [
      "S",
      "."
    ],
    [
      "BinarySearchTre",
      "e("
    ],
    [
      "si",
      "g"
    ],
    [
      "F",
      "I"
    ],
    [
      "for",
      "ward("
    ],
    [
      "att",
      "n_"
    ],
    [
      "tex",
      "t"
    ],
    [
      "imple",
      "men"
    ],
    [
      "s",
      "o"
    ],
    [
      "3",
      "4"
    ],
    [
      "re",
      "ver"
    ],
    [
      "r",
      "un"
    ],
    [
      "P",
      "ro"
    ],
    [
      "ge",
      "_"
    ],
    [
      "A",
      "</w>"
    ],
    [
      "bo",
      "ol"
    ],
    [
      "8",
      ",</w>"
    ],
    [
      "http",
      "s:"
    ],
    [
      "https:",
      "//"
    ],
    [
      "yiel",
      "d</w>"
    ],
    [
      "1",
      "3,</w>"
    ],
    [
      "I",
      "f</w>"
    ],
    [
      "s",
      "lo"
    ],
    [
      "str",
      ":</w>"
    ],
    [
      "linked_",
      "list)</w>"
    ],
    [
      "(",
      "None,</w>"
    ],
    [
      "u",
      "s"
    ],
    [
      "binary_",
      "search"
    ],
    [
      "linear",
      "_"
    ],
    [
      "h",
      "ash"
    ],
    [
      "FI",
      "LE"
    ],
    [
      "pro",
      "x"
    ],
    [
      "rn",
      "g"
    ],
    [
      "B",
      "PE"
    ],
    [
      "type=",
      "int,</w>"
    ],
    [
      "'",
      "__"
    ],
    [
      "j",
      "</w>"
    ],
    [
      "inte",
      "ger"
    ],
    [
      "elemen",
      "t</w>"
    ],
    [
      "g",
      "re"
    ],
    [
      "i",
      ")</w>"
    ],
    [
      "T",
      "E"
    ],
    [
      "q",
      "r"
    ],
    [
      "negati",
      "ve</w>"
    ],
    [
      "_",
      "</w>"
    ],
    [
      "wil",
      "l</w>"
    ],
    [
      "None",
      ")</w>"
    ],
    [
      "us",
      "r/"
    ],
    [
      "palind",
      "ro"
    ],
    [
      "pro",
      "mp"
    ],
    [
      "b",
      ")</w>"
    ],
    [
      "s",
      "sa"
    ],
    [
      "q",
      "k"
    ],
    [
      "O",
      "N"
    ],
    [
      "Ex",
      "ample"
    ],
    [
      "f",
      "ol"
    ],
    [
      "[",
      "0]</w>"
    ],
    [
      "!",
      "=</w>"
    ],
    [
      "np.",
      "array"
    ],
    [
      "our",
      "</w>"
    ],
    [
      ".j",
      "o"
    ],
    [
      "tra",
      "ver"
    ],
    [
      "S",
      "I"
    ],
    [
      "cur",
      "r"
    ],
    [
      "sol",
      "u"
    ],
    [
      "me",
      "ssa"
    ],
    [
      "FF",
      "FF"
    ],
    [
      "la",
      "yer"
    ],
    [
      "g",
      "rad"
    ],
    [
      "M",
      "E"
    ],
    [
      "S",
      "E"
    ],
    [
      "n_e",
      "mbed"
    ],
    [
      "An",
      "y"
    ],
    [
      "implemen",
      "tation</w>"
    ],
    [
      ":",
      "return:</w>"
    ],
    [
      "lo",
      "b"
    ],
    [
      "\").",
      "stri"
    ],
    [
      "qu",
      "i"
    ],
    [
      "**",
      "k"
    ],
    [
      "fib_",
      "recursive_"
    ],
    [
      "s",
      "peci"
    ],
    [
      "H",
      "el"
    ],
    [
      "Lin",
      "ked"
    ],
    [
      "Linked",
      "Li"
    ],
    [
      "\"",
      ".jo"
    ],
    [
      "ex",
      "i"
    ],
    [
      "h",
      "a"
    ],
    [
      "str",
      ")</w>"
    ],
    [
      "binary_search",
      "_"
    ],
    [
      "lo",
      "wer"
    ],
    [
      "sequen",
      "ce"
    ],
    [
      "exponen",
      "t</w>"
    ],
    [
      "arg",
      "s</w>"
    ],
    [
      "di",
      "m"
    ],
    [
      "usr/",
      "share"
    ],
    [
      "usr/share",
      "/"
    ],
    [
      "etc",
      "/"
    ],
    [
      "_",
      "size"
    ],
    [
      "lin",
      "k."
    ],
    [
      "algorith",
      "m</w>"
    ],
    [
      "item",
      "s</w>"
    ],
    [
      "rando",
      "m."
    ],
    [
      "nu",
      "m_"
    ],
    [
      "g",
      "lob"
    ],
    [
      "s",
      "\")</w>"
    ],
    [
      "an",
      "no"
    ],
    [
      "y",
      "("
    ],
    [
      "c",
      "an</w>"
    ],
    [
      "o",
      "ver"
    ],
    [
      "prime",
      "s("
    ],
    [
      "(self",
      "):</w>"
    ],
    [
      "6",
      "</w>"
    ],
    [
      "gi",
      "ven</w>"
    ],
    [
      "Error",
      ":</w>"
    ],
    [
      "4",
      ")</w>"
    ],
    [
      "f",
      "ound</w>"
    ],
    [
      "c",
      "ryp"
    ],
    [
      "ci",
      "pher"
    ],
    [
      "`",
      "</w>"
    ],
    [
      "====",
      "===="
    ],
    [
      "'",
      "'"
    ],
    [
      "g",
      "am"
    ],
    [
      "tup",
      "le["
    ],
    [
      "cf",
      "g."
    ],
    [
      "to",
      "k</w>"
    ],
    [
      "b",
      "at"
    ],
    [
      "R",
      "E"
    ],
    [
      "inf",
      "o"
    ],
    [
      "\"/",
      "etc/"
    ],
    [
      "_",
      "C"
    ],
    [
      "Token",
      "i"
    ],
    [
      "con",
      "text_"
    ],
    [
      "pli",
      "c"
    ],
    [
      ".",
      "__"
    ],
    [
      "order",
      "</w>"
    ],
    [
      "Example",
      "s:</w>"
    ],
    [
      "let",
      "ter"
    ],
    [
      "b",
      "re"
    ],
    [
      "bre",
      "a"
    ],
    [
      "_",
      "inpu"
    ],
    [
      "p",
      "i"
    ],
    [
      "re",
      "mo"
    ],
    [
      "T",
      "</w>"
    ],
    [
      "9",
      ",</w>"
    ],
    [
      "Fibonac",
      "ci</w>"
    ],
    [
      "me",
      "mo"
    ],
    [
      "ol",
      "s</w>"
    ],
    [
      "s",
      "qr"
    ],
    [
      "]",
      "],</w>"
    ],
    [
      "resul",
      "t"
    ],
    [
      "_00",
      "0"
    ],
    [
      "all",
      "("
    ],
    [
      "l",
      "d"
    ],
    [
      "LinkedLi",
      "st()</w>"
    ],
    [
      "next_",
      "node</w>"
    ],
    [
      "par",
      "ti"
    ],
    [
      "\".jo",
      "in("
    ],
    [
      "pas",
      "s</w>"
    ],
    [
      "g",
      "raph"
    ],
    [
      "\"",
      "],</w>"
    ],
    [
      ":",
      ","
    ],
    [
      "di",
      "vi"
    ],
    [
      "x",
      ")</w>"
    ],
    [
      "binary_exp_",
      "mod_"
    ],
    [
      "n",
      "."
    ],
    [
      "bc",
      "[\""
    ],
    [
      "logi",
      "t"
    ],
    [
      "add_",
      "grad("
    ],
    [
      "roo",
      "t."
    ],
    [
      "self.",
      "_"
    ],
    [
      "wrapper",
      "</w>"
    ],
    [
      "7",
      "."
    ],
    [
      "4",
      "."
    ],
    [
      "len",
      "g"
    ],
    [
      "brea",
      "k</w>"
    ],
    [
      "F",
      "or</w>"
    ],
    [
      "item",
      ")</w>"
    ],
    [
      "ini",
      "ti"
    ],
    [
      "or",
      "g"
    ],
    [
      "org",
      "/"
    ],
    [
      "Co",
      "mpu"
    ],
    [
      ">",
      "=</w>"
    ],
    [
      ")",
      "))</w>"
    ],
    [
      "math",
      "."
    ],
    [
      "ld",
      "!"
    ],
    [
      "{",
      "len("
    ],
    [
      "__ini",
      "t__(self,</w>"
    ],
    [
      "Return",
      "s</w>"
    ],
    [
      "0",
      "':</w>"
    ],
    [
      "H",
      "A"
    ],
    [
      "is_",
      "palindro"
    ],
    [
      "key",
      ")</w>"
    ],
    [
      "con",
      "tinue</w>"
    ],
    [
      "atest_",
      "com"
    ],
    [
      "atest_com",
      "mon_"
    ],
    [
      "atest_common_",
      "divi"
    ],
    [
      "g",
      "c"
    ],
    [
      "x",
      ":</w>"
    ],
    [
      "(",
      "a</w>"
    ],
    [
      "su",
      "m("
    ],
    [
      "r",
      "u"
    ],
    [
      "pro",
      "ces"
    ],
    [
      ".",
      "parameter"
    ],
    [
      "P",
      "ath"
    ],
    [
      "re",
      "."
    ],
    [
      "chun",
      "k"
    ],
    [
      "L",
      "T"
    ],
    [
      "val_",
      "los"
    ],
    [
      "wrap",
      "ped</w>"
    ],
    [
      "so",
      "me</w>"
    ],
    [
      "comparab",
      "le</w>"
    ],
    [
      "2",
      "])</w>"
    ],
    [
      "5",
      "]</w>"
    ],
    [
      "[",
      "1,</w>"
    ],
    [
      "el",
      "se</w>"
    ],
    [
      "1",
      ":</w>"
    ],
    [
      "list[int",
      "],</w>"
    ],
    [
      "i",
      ",</w>"
    ],
    [
      "memo",
      "i"
    ],
    [
      "func",
      "("
    ],
    [
      "s",
      "):</w>"
    ],
    [
      "ou",
      "t"
    ],
    [
      "dict",
      "["
    ],
    [
      "po",
      "wer"
    ],
    [
      "pa",
      "ge"
    ],
    [
      "6",
      ")</w>"
    ],
    [
      "n",
      "th"
    ],
    [
      "lin",
      "k</w>"
    ],
    [
      "sh",
      "ould</w>"
    ],
    [
      "9",
      "</w>"
    ],
    [
      "ma",
      "in()</w>"
    ],
    [
      "f",
      "ul"
    ],
    [
      "{'",
      "3"
    ],
    [
      "add_",
      "ed"
    ],
    [
      "ver",
      "tex</w>"
    ],
    [
      "\"",
      "E"
    ],
    [
      "item",
      "s("
    ],
    [
      "+",
      "=</w>"
    ],
    [
      "sorted_collection",
      ",</w>"
    ],
    [
      "str",
      "</w>"
    ],
    [
      "gre",
      "atest_common_divi"
    ],
    [
      "greatest_common_divi",
      "sor"
    ],
    [
      "c",
      "ase</w>"
    ],
    [
      "0",
      "x"
    ],
    [
      "si",
      "on"
    ],
    [
      "np.ndarray",
      ")</w>"
    ],
    [
      "po",
      "s_"
    ],
    [
      "qk",
      "v"
    ],
    [
      "verbo",
      "se:</w>"
    ],
    [
      "to",
      "k."
    ],
    [
      "vocab",
      "_size"
    ],
    [
      "N",
      "LT"
    ],
    [
      "NLT",
      "K"
    ],
    [
      "word",
      "s"
    ],
    [
      "_",
      "A"
    ],
    [
      "c",
      "ast()</w>"
    ],
    [
      "5",
      "])</w>"
    ],
    [
      "-",
      "5,</w>"
    ],
    [
      "test",
      "mod()</w>"
    ],
    [
      "mer",
      "ge_"
    ],
    [
      "sing",
      "le</w>"
    ],
    [
      "user",
      "_inpu"
    ],
    [
      "Type",
      "V"
    ],
    [
      "TypeV",
      "ar"
    ],
    [
      "bool",
      ":</w>"
    ],
    [
      "C",
      "alc"
    ],
    [
      "er",
      "ror"
    ],
    [
      "'",
      "t</w>"
    ],
    [
      "7",
      "</w>"
    ],
    [
      "on",
      "ly</w>"
    ],
    [
      "factori",
      "al"
    ],
    [
      "S.",
      "push"
    ],
    [
      "conta",
      "in"
    ],
    [
      "BinarySearchTree(",
      ")."
    ],
    [
      "value",
      ")</w>"
    ],
    [
      "max",
      "("
    ],
    [
      "ou",
      "</w>"
    ],
    [
      "g.",
      "add_ed"
    ],
    [
      "\"",
      "D"
    ],
    [
      "M",
      "od"
    ],
    [
      "ted",
      ":</w>"
    ],
    [
      "I",
      "mple"
    ],
    [
      "Imple",
      "men"
    ],
    [
      "me",
      "an"
    ],
    [
      "by",
      "te"
    ],
    [
      "stati",
      "c"
    ],
    [
      "b",
      ".</w>"
    ],
    [
      "par",
      "se"
    ],
    [
      "k",
      ",</w>"
    ],
    [
      "tran",
      "s"
    ],
    [
      "trans",
      "po"
    ],
    [
      "gam",
      "ma"
    ],
    [
      "self.",
      "cache"
    ],
    [
      "att",
      "n."
    ],
    [
      "s.",
      "append("
    ],
    [
      "r",
      "\""
    ],
    [
      "fi",
      "g"
    ],
    [
      "bat",
      "ch"
    ],
    [
      "check",
      "po"
    ],
    [
      "cf",
      "g"
    ],
    [
      "T",
      "_"
    ],
    [
      "ap",
      "plic"
    ],
    [
      "wrap",
      "ped"
    ],
    [
      "3",
      "."
    ],
    [
      "ch",
      "o"
    ],
    [
      "letter",
      "s</w>"
    ],
    [
      ")",
      "):</w>"
    ],
    [
      "py",
      "thon</w>"
    ],
    [
      "t",
      "w"
    ],
    [
      "anno",
      "tation"
    ],
    [
      "a",
      "."
    ],
    [
      "*",
      "args,</w>"
    ],
    [
      "**k",
      "warg"
    ],
    [
      "in",
      "stance"
    ],
    [
      "lo",
      ",</w>"
    ],
    [
      "wor",
      "ld!"
    ],
    [
      "self.",
      "head</w>"
    ],
    [
      "linked_list.",
      "delete_"
    ],
    [
      "Ex",
      "cep"
    ],
    [
      "8",
      "</w>"
    ],
    [
      "ha",
      "ve</w>"
    ],
    [
      "L",
      "A"
    ],
    [
      "True",
      ",</w>"
    ],
    [
      "sorted_collection",
      ")</w>"
    ],
    [
      "mid",
      "point</w>"
    ],
    [
      "pro",
      "b"
    ],
    [
      "&",
      "</w>"
    ],
    [
      "pro",
      "j"
    ],
    [
      "solu",
      "tion"
    ],
    [
      "e",
      "ach</w>"
    ],
    [
      "q",
      "</w>"
    ],
    [
      "L",
      "a"
    ],
    [
      "input_",
      "string"
    ],
    [
      "b",
      "ru"
    ],
    [
      "h",
      "o"
    ],
    [
      "z",
      "i"
    ],
    [
      "FILE",
      ":</w>"
    ],
    [
      "W",
      ",</w>"
    ],
    [
      "----------------------------------------------------------------",
      "--</w>"
    ],
    [
      "self.cache",
      "[\""
    ],
    [
      ".",
      "forward("
    ],
    [
      "param",
      "s</w>"
    ],
    [
      "A",
      "P"
    ],
    [
      "I",
      "N"
    ],
    [
      "…",
      "\")</w>"
    ],
    [
      "zer",
      "</w>"
    ],
    [
      "=",
      "args."
    ],
    [
      "f",
      "re"
    ],
    [
      "No",
      "t"
    ],
    [
      "re",
      "que"
    ],
    [
      "S",
      "SI"
    ],
    [
      "(",
      "'__"
    ],
    [
      "5",
      "0"
    ],
    [
      "leng",
      "th</w>"
    ],
    [
      "1",
      "):</w>"
    ],
    [
      "m",
      "s</w>"
    ],
    [
      "unsorted",
      "["
    ],
    [
      "print(\"",
      "\\n"
    ],
    [
      "tw",
      "o</w>"
    ],
    [
      "print(f\"",
      "{"
    ],
    [
      "3",
      "0,</w>"
    ],
    [
      "https://",
      "en."
    ],
    [
      "wiki",
      "pedi"
    ],
    [
      "wikipedi",
      "a."
    ],
    [
      "wikipedia.",
      "org/"
    ],
    [
      "wikipedia.org/",
      "wiki"
    ],
    [
      "wikipedia.org/wiki",
      "/"
    ],
    [
      "nu",
      "mpy</w>"
    ],
    [
      "ed",
      ")</w>"
    ],
    [
      "a",
      ",</w>"
    ],
    [
      "fib_recursive_",
      "ter"
    ],
    [
      "flo",
      "w"
    ],
    [
      "sqr",
      "t("
    ],
    [
      "matri",
      "x_"
    ],
    [
      "b",
      "ase"
    ],
    [
      "m",
      "s"
    ],
    [
      "str(",
      "linked_list)</w>"
    ],
    [
      "curren",
      "t</w>"
    ],
    [
      "H",
      "</w>"
    ],
    [
      "A",
      "d"
    ],
    [
      ")}",
      ",</w>"
    ],
    [
      "ar",
      "r"
    ],
    [
      "O",
      "r"
    ],
    [
      "P",
      "A"
    ],
    [
      "g.add_ed",
      "ge("
    ],
    [
      "to",
      "_"
    ],
    [
      "\"",
      "C"
    ],
    [
      "\"",
      "F"
    ],
    [
      "}",
      ")</w>"
    ],
    [
      "M",
      "A"
    ],
    [
      "is_palindro",
      "me"
    ],
    [
      "li",
      "b"
    ],
    [
      "curren",
      "t_"
    ],
    [
      "re",
      "f"
    ],
    [
      "non",
      "-"
    ],
    [
      "mod",
      "ul"
    ],
    [
      "le",
      "m"
    ],
    [
      "to",
      "tal</w>"
    ],
    [
      "c",
      "a"
    ],
    [
      "A",
      "p"
    ],
    [
      "K",
      "e"
    ],
    [
      "contain",
      "s</w>"
    ],
    [
      "con",
      "ten"
    ],
    [
      "transpo",
      "se("
    ],
    [
      "GPT",
      "Con"
    ],
    [
      "ke",
      "ep"
    ],
    [
      "keep",
      "dims="
    ],
    [
      "b",
      ")."
    ],
    [
      "li",
      "ke("
    ],
    [
      ")",
      ":,"
    ],
    [
      "BPE",
      "Tokeni"
    ],
    [
      "n_embed",
      ",</w>"
    ],
    [
      "rng",
      ")</w>"
    ],
    [
      "E",
      "_"
    ],
    [
      "in",
      "s"
    ],
    [
      "wer",
      "k"
    ],
    [
      "werk",
      "ze"
    ],
    [
      "werkze",
      "u"
    ],
    [
      "werkzeu",
      "g."
    ],
    [
      "F",
      "las"
    ],
    [
      "C",
      "allab"
    ],
    [
      "'",
      "Return</w>"
    ],
    [
      "total_",
      "ordering</w>"
    ],
    [
      "Not",
      "Implemen"
    ],
    [
      "s",
      "pec"
    ],
    [
      "-",
      "4"
    ],
    [
      "2",
      "]</w>"
    ],
    [
      "2",
      "3,</w>"
    ],
    [
      "'",
      "a"
    ],
    [
      "'a",
      "',</w>"
    ],
    [
      "'",
      "b"
    ],
    [
      "cho",
      "i"
    ],
    [
      "doctest.",
      "testmod()</w>"
    ],
    [
      "time",
      "i"
    ],
    [
      "glob",
      "al"
    ],
    [
      "input(\"En",
      "ter</w>"
    ],
    [
      "\").stri",
      "p()</w>"
    ],
    [
      "le",
      "ase</w>"
    ],
    [
      "2",
      ":</w>"
    ],
    [
      "po",
      "si"
    ],
    [
      "(",
      "0,</w>"
    ],
    [
      "negati",
      "ve"
    ],
    [
      "exponen",
      "ti"
    ],
    [
      "_000",
      "_000"
    ],
    [
      "2",
      "0)</w>"
    ],
    [
      "Hel",
      "lo,</w>"
    ]
  ],
  "vocab": {
    "<PAD>": 0,
    "<UNK>": 1,
    "<BOS>": 2,
    "<EOS>": 3,
    "!": 4,
    "\"": 5,
    "#": 6,
    "$": 7,
    "%": 8,
    "&": 9,
    "'": 10,
    "(": 11,
    ")": 12,
    "*": 13,
    "+": 14,
    ",": 15,
    "-": 16,
    ".": 17,
    "/": 18,
    "0": 19,
    "1": 20,
    "2": 21,
    "3": 22,
    "4": 23,
    "5": 24,
    "6": 25,
    "7": 26,
    "8": 27,
    "9": 28,
    ":": 29,
    ";": 30,
    "<": 31,
    "</w>": 32,
    "=": 33,
    ">": 34,
    "?": 35,
    "@": 36,
    "A": 37,
    "B": 38,
    "C": 39,
    "D": 40,
    "E": 41,
    "F": 42,
    "G": 43,
    "H": 44,
    "I": 45,
    "J": 46,
    "K": 47,
    "L": 48,
    "M": 49,
    "N": 50,
    "O": 51,
    "P": 52,
    "Q": 53,
    "R": 54,
    "S": 55,
    "T": 56,
    "U": 57,
    "V": 58,
    "W": 59,
    "X": 60,
    "Y": 61,
    "Z": 62,
    "[": 63,
    "\\": 64,
    "]": 65,
    "^": 66,
    "_": 67,
    "`": 68,
    "a": 69,
    "b": 70,
    "c": 71,
    "d": 72,
    "e": 73,
    "f": 74,
    "g": 75,
    "h": 76,
    "i": 77,
    "j": 78,
    "k": 79,
    "l": 80,
    "m": 81,
    "n": 82,
    "o": 83,
    "p": 84,
    "q": 85,
    "r": 86,
    "s": 87,
    "t": 88,
    "u": 89,
    "v": 90,
    "w": 91,
    "x": 92,
    "y": 93,
    "z": 94,
    "{": 95,
    "|": 96,
    "}": 97,
    "~": 98,
    "×": 99,
    "Ł": 100,
    "–": 101,
    "—": 102,
    "‘": 103,
    "’": 104,
    "“": 105,
    "”": 106,
    "…": 107,
    "→": 108,
    "--": 109,
    ",</w>": 110,
    "in": 111,
    "----": 112,
    ")</w>": 113,
    "e</w>": 114,
    "t</w>": 115,
    ":</w>": 116,
    "or": 117,
    "te": 118,
    "se": 119,
    "s</w>": 120,
    "on": 121,
    "re": 122,
    "=</w>": 123,
    "ar": 124,
    "th": 125,
    "st": 126,
    ">>": 127,
    "de": 128,
    "--------": 129,
    "le": 130,
    "f</w>": 131,
    "ti": 132,
    "></w>": 133,
    "##": 134,
    "al": 135,
    "ra": 136,
    "\"\"": 137,
    "d</w>": 138,
    "er": 139,
    "en": 140,
    "ur": 141,
    "__": 142,
    "tion": 143,
    "sel": 144,
    "ro": 145,
    "self": 146,
    "li": 147,
    "n</w>": 148,
    ">>></w>": 149,
    "mp": 150,
    "co": 151,
    "the</w>": 152,
    "----------------": 153,
    "at": 154,
    "\"</w>": 155,
    "#</w>": 156,
    "d_": 157,
    "to": 158,
    ".</w>": 159,
    "t(": 160,
    "m</w>": 161,
    "####": 162,
    "ac": 163,
    "an": 164,
    "t_": 165,
    "tur": 166,
    "]</w>": 167,
    "un": 168,
    "me": 169,
    "lo": 170,
    "ing": 171,
    "y</w>": 172,
    "no": 173,
    "a</w>": 174,
    "if</w>": 175,
    "retur": 176,
    "ke": 177,
    "or</w>": 178,
    "as": 179,
    "\"\"\"</w>": 180,
    "self.": 181,
    "ch": 182,
    "-></w>": 183,
    "sor": 184,
    "ge": 185,
    "is</w>": 186,
    "ul": 187,
    "si": 188,
    "def</w>": 189,
    "return</w>": 190,
    "di": 191,
    "0,</w>": 192,
    "):</w>": 193,
    "lle": 194,
    "str": 195,
    "imp": 196,
    "llec": 197,
    "ex": 198,
    "collec": 199,
    "for</w>": 200,
    "pe": 201,
    "ort</w>": 202,
    "ce": 203,
    "()</w>": 204,
    "import</w>": 205,
    "fro": 206,
    "ue": 207,
    "Non": 208,
    "fi": 209,
    "arg": 210,
    "list": 211,
    "to</w>": 212,
    "\")</w>": 213,
    "ve": 214,
    "ad": 215,
    "of</w>": 216,
    "-</w>": 217,
    "mo": 218,
    "int": 219,
    "sorte": 220,
    "from</w>": 221,
    "\",</w>": 222,
    "p.": 223,
    "########": 224,
    "ma": 225,
    "pr": 226,
    "val": 227,
    "ab": 228,
    "(self": 229,
    "dat": 230,
    "ite": 231,
    "--------------------------------": 232,
    "l</w>": 233,
    "ack": 234,
    "1,</w>": 235,
    "None": 236,
    "collection": 237,
    "cur": 238,
    "linke": 239,
    "s.": 240,
    "do": 241,
    "po": 242,
    "he": 243,
    "))</w>": 244,
    "pu": 245,
    "para": 246,
    "res": 247,
    "linked_": 248,
    "==</w>": 249,
    "],</w>": 250,
    "00": 251,
    "not</w>": 252,
    "np.": 253,
    "wi": 254,
    "t.": 255,
    "3,</w>": 256,
    "d(": 257,
    "mb": 258,
    "ri": 259,
    "and</w>": 260,
    "1</w>": 261,
    "i</w>": 262,
    "5,</w>": 263,
    "las": 264,
    "unc": 265,
    "func": 266,
    "s:</w>": 267,
    "\":</w>": 268,
    "+</w>": 269,
    "ty": 270,
    "ap": 271,
    "s(": 272,
    "up": 273,
    "ou": 274,
    "==": 275,
    "el": 276,
    "s,</w>": 277,
    ").": 278,
    "ck": 279,
    "na": 280,
    "arch": 281,
    "ta": 282,
    "ne": 283,
    "0</w>": 284,
    "nu": 285,
    "cursi": 286,
    "Er": 287,
    "Tr": 288,
    "p_": 289,
    "])</w>": 290,
    "recursi": 291,
    "resul": 292,
    "ol": 293,
    "sh": 294,
    "index": 295,
    "n_": 296,
    "2,</w>": 297,
    "',</w>": 298,
    "sorted_": 299,
    "ve(": 300,
    "item": 301,
    "gh": 302,
    "clas": 303,
    "y_": 304,
    "Re": 305,
    "``": 306,
    "*</w>": 307,
    "---</w>": 308,
    "Error": 309,
    "arra": 310,
    "id": 311,
    "0)</w>": 312,
    "s_": 313,
    "th</w>": 314,
    "inser": 315,
    "other": 316,
    "search": 317,
    "ge(": 318,
    "k</w>": 319,
    "[0,</w>": 320,
    "dic": 321,
    "),</w>": 322,
    "result</w>": 323,
    "name": 324,
    "(\"": 325,
    "x</w>": 326,
    "array": 327,
    "wor": 328,
    "################": 329,
    "for": 330,
    "ts</w>": 331,
    "wrap": 332,
    "(self,</w>": 333,
    "x_": 334,
    "roo": 335,
    "p</w>": 336,
    "len(": 337,
    "}</w>": 338,
    "war": 339,
    "sorted_collection": 340,
    "il": 341,
    "ze": 342,
    "No": 343,
    "all</w>": 344,
    "None:</w>": 345,
    "linked_list.": 346,
    "lef": 347,
    "node": 348,
    "list[": 349,
    "inpu": 350,
    "binar": 351,
    "type": 352,
    "ing</w>": 353,
    "t:</w>": 354,
    "ed": 355,
    "key": 356,
    "righ": 357,
    "7,</w>": 358,
    "all": 359,
    "[\"": 360,
    "param</w>": 361,
    "mber": 362,
    "su": 363,
    "add_": 364,
    "with</w>": 365,
    "m_": 366,
    "2</w>": 367,
    "s)</w>": 368,
    "tra": 369,
    "blo": 370,
    "doc": 371,
    "t)</w>": 372,
    "/</w>": 373,
    "1)</w>": 374,
    "bu": 375,
    "ci": 376,
    "number": 377,
    "..": 378,
    "be</w>": 379,
    "fib": 380,
    "tho": 381,
    "fa": 382,
    ":param</w>": 383,
    "range(": 384,
    "v</w>": 385,
    "value": 386,
    "faul": 387,
    "sa": 388,
    "metho": 389,
    "binary_": 390,
    "True</w>": 391,
    "vo": 392,
    "nd": 393,
    "]:</w>": 394,
    "pli": 395,
    "<</w>": 396,
    "tr": 397,
    "Val": 398,
    "ndarray": 399,
    "block": 400,
    "ter</w>": 401,
    "ec": 402,
    "rai": 403,
    "'</w>": 404,
    "g.": 405,
    "flo": 406,
    "defaul": 407,
    "np.ndarray": 408,
    "Value": 409,
    "(1": 410,
    "55": 411,
    "int,</w>": 412,
    "fib_": 413,
    "w</w>": 414,
    "':</w>": 415,
    "la": 416,
    "bj": 417,
    "gi": 418,
    "f\"": 419,
    "insert_": 420,
    "{'": 421,
    "py": 422,
    "cep": 423,
    "\"\"\"": 424,
    "ValueError": 425,
    "c</w>": 426,
    "bo": 427,
    "se:</w>": 428,
    "args.": 429,
    "class</w>": 430,
    "raise</w>": 431,
    "obj": 432,
    "umen": 433,
    "----------------------------------------------------------------": 434,
    "3</w>": 435,
    "The</w>": 436,
    "k_": 437,
    "\\n": 438,
    "that</w>": 439,
    "Retur": 440,
    "15": 441,
    "tail": 442,
    "Fal": 443,
    "wh": 444,
    "...</w>": 445,
    "pa": 446,
    "m.": 447,
    "o</w>": 448,
    "0.": 449,
    "b</w>": 450,
    "sert</w>": 451,
    "t=": 452,
    "4,</w>": 453,
    "__</w>": 454,
    "it</w>": 455,
    "tup": 456,
    "stance": 457,
    "be": 458,
    "====": 459,
    "t,</w>": 460,
    "fir": 461,
    "ir": 462,
    "10,</w>": 463,
    "argumen": 464,
    "ini": 465,
    "s[": 466,
    "FF": 467,
    "PT": 468,
    "att": 469,
    "corpu": 470,
    "sort_": 471,
    "Ex": 472,
    "True": 473,
    "assert</w>": 474,
    "word": 475,
    "token": 476,
    "wer": 477,
    "Node": 478,
    "is_": 479,
    "text</w>": 480,
    "voc": 481,
    "le_": 482,
    "recursive(": 483,
    "__name": 484,
    "com": 485,
    "g</w>": 486,
    "-----------</w>": 487,
    "parame": 488,
    "2)</w>": 489,
    "ph": 490,
    ")}": 491,
    "vi": 492,
    "ln": 493,
    "op_": 494,
    "op_result</w>": 495,
    "qu": 496,
    "size": 497,
    "linked_list.insert_": 498,
    "ff": 499,
    "mple": 500,
    "time": 501,
    "Se": 502,
    "0:</w>": 503,
    "|</w>": 504,
    "GPT": 505,
    "k.": 506,
    "---------------------------------------------------------------------------</w>": 507,
    "wrapper": 508,
    "ly</w>": 509,
    "te_": 510,
    "None,</w>": 511,
    "exp_": 512,
    "iterative(": 513,
    "mu": 514,
    "y:</w>": 515,
    "function</w>": 516,
    "w_": 517,
    "node.": 518,
    "emp": 519,
    "alph": 520,
    "bub": 521,
    "bubb": 522,
    "p(": 523,
    "by</w>": 524,
    "bi": 525,
    "objec": 526,
    "vocab": 527,
    "[]</w>": 528,
    "1.": 529,
    "docte": 530,
    "most</w>": 531,
    "else:</w>": 532,
    "call</w>": 533,
    "search(": 534,
    "binary_exp_": 535,
    "2.": 536,
    "s=": 537,
    "-1": 538,
    "ve_": 539,
    "root</w>": 540,
    "``</w>": 541,
    "cf": 542,
    "PE": 543,
    "back</w>": 544,
    "5)</w>": 545,
    "str(": 546,
    "data_": 547,
    "ward(": 548,
    "bubble_": 549,
    "bubble_sort_": 550,
    "his</w>": 551,
    "linked_list</w>": 552,
    "(</w>": 553,
    "self.__": 554,
    "n:</w>": 555,
    "__ma": 556,
    "left</w>": 557,
    "<=</w>": 558,
    "parameter": 559,
    "exponen": 560,
    "type=": 561,
    "et": 562,
    "out</w>": 563,
    "prev</w>": 564,
    "hi": 565,
    "los": 566,
    "param": 567,
    "An": 568,
    "ces": 569,
    "This</w>": 570,
    "spli": 571,
    "excep": 572,
    "Return</w>": 573,
    "sy": 574,
    "model": 575,
    "out_": 576,
    "val_": 577,
    "order": 578,
    "elemen": 579,
    "s:": 580,
    "Ty": 581,
    "ki": 582,
    "%</w>": 583,
    "4</w>": 584,
    "right</w>": 585,
    "################################": 586,
    "first</w>": 587,
    "Traceback</w>": 588,
    "(most</w>": 589,
    "recent</w>": 590,
    "last):</w>": 591,
    "gati": 592,
    "m(": 593,
    "5</w>": 594,
    "prime": 595,
    "max": 596,
    "head": 597,
    "ry": 598,
    "add_argumen": 599,
    "LE": 600,
    "using</w>": 601,
    "ht": 602,
    "negati": 603,
    "next</w>": 604,
    "S</w>": 605,
    "item:</w>": 606,
    "ryp": 607,
    "cl": 608,
    "default=": 609,
    "add_argument(\"": 610,
    "add_argument(\"--": 611,
    "le[": 612,
    "__name__</w>": 613,
    "list[int": 614,
    "**": 615,
    "cache": 616,
    "linked_list.insert_tail": 617,
    "in(": 618,
    "curren": 619,
    "15],</w>": 620,
    "etc": 621,
    "p.add_argument(\"--": 622,
    "Py": 623,
    "unsorted": 624,
    "print(f\"": 625,
    "sort(": 626,
    "0]</w>": 627,
    "back": 628,
    "Type": 629,
    "Li": 630,
    "mi": 631,
    "must</w>": 632,
    "__ini": 633,
    "3)</w>": 634,
    "_h": 635,
    "T,</w>": 636,
    "logi": 637,
    "gori": 638,
    "gorith": 639,
    "1]</w>": 640,
    "sequen": 641,
    "\"__ma": 642,
    "\"__main__": 643,
    "\"__main__\":</w>": 644,
    "ValueError:</w>": 645,
    "other</w>": 646,
    "point</w>": 647,
    "we": 648,
    "used</w>": 649,
    "(B": 650,
    "method": 651,
    "sc": 652,
    "yer": 653,
    "lr": 654,
    "algorith": 655,
    "[-": 656,
    "Co": 657,
    ")]</w>": 658,
    "y,</w>": 659,
    "}\")</w>": 660,
    "yi": 661,
    "yiel": 662,
    "al_": 663,
    "stance(": 664,
    "from_": 665,
    "False": 666,
    "mod": 667,
    "od": 668,
    "str,</w>": 669,
    "rn": 670,
    "es</w>": 671,
    "ch</w>": 672,
    "htt": 673,
    "//": 674,
    "(self)</w>": 675,
    "empty": 676,
    "Stack": 677,
    "bisec": 678,
    "x,</w>": 679,
    "op": 680,
    "sub": 681,
    "To": 682,
    "6,</w>": 683,
    "=\"": 684,
    "except</w>": 685,
    "In": 686,
    "t__(self,</w>": 687,
    "ValueError(\"": 688,
    "([": 689,
    "by": 690,
    "new_": 691,
    "ould</w>": 692,
    "r/": 693,
    "linear": 694,
    "x_ln": 695,
    "fc": 696,
    "Token": 697,
    "_00": 698,
    "\").": 699,
    "'s</w>": 700,
    "conta": 701,
    "function": 702,
    "http": 703,
    "Search": 704,
    "e(": 705,
    "verbo": 706,
    "\"]</w>": 707,
    "ct": 708,
    "bc": 709,
    "n_e": 710,
    "inf": 711,
    "text)</w>": 712,
    "other):</w>": 713,
    "Python</w>": 714,
    "append(": 715,
    "input(\"": 716,
    "En": 717,
    "numbers</w>": 718,
    "alc": 719,
    "Fi": 720,
    "Fibonac": 721,
    "wiki": 722,
    "isin": 723,
    "isinstance(": 724,
    ".j": 725,
    "Binary": 726,
    "BinarySearch": 727,
    "BinarySearchTre": 728,
    "laz": 729,
    "uni": 730,
    "ep": 731,
    "pair": 732,
    "sorted_collection[": 733,
    "x.": 734,
    "am": 735,
    "\"/": 736,
    "chun": 737,
    "tokeni": 738,
    "collection[": 739,
    "test": 740,
    "10": 741,
    "number</w>": 742,
    "linked_list.insert_tail(\"": 743,
    "input_": 744,
    "Di": 745,
    "total_": 746,
    "out_dir": 747,
    "link_": 748,
    "i]</w>": 749,
    "args,</w>": 750,
    "recursive_": 751,
    "True)</w>": 752,
    "next_": 753,
    "S.": 754,
    "BinarySearchTree(": 755,
    "sig": 756,
    "FI": 757,
    "forward(": 758,
    "attn_": 759,
    "text": 760,
    "implemen": 761,
    "so": 762,
    "34": 763,
    "rever": 764,
    "run": 765,
    "Pro": 766,
    "ge_": 767,
    "A</w>": 768,
    "bool": 769,
    "8,</w>": 770,
    "https:": 771,
    "https://": 772,
    "yield</w>": 773,
    "13,</w>": 774,
    "If</w>": 775,
    "slo": 776,
    "str:</w>": 777,
    "linked_list)</w>": 778,
    "(None,</w>": 779,
    "us": 780,
    "binary_search": 781,
    "linear_": 782,
    "hash": 783,
    "FILE": 784,
    "prox": 785,
    "rng": 786,
    "BPE": 787,
    "type=int,</w>": 788,
    "'__": 789,
    "j</w>": 790,
    "integer": 791,
    "element</w>": 792,
    "gre": 793,
    "i)</w>": 794,
    "TE": 795,
    "qr": 796,
    "negative</w>": 797,
    "_</w>": 798,
    "will</w>": 799,
    "None)</w>": 800,
    "usr/": 801,
    "palindro": 802,
    "promp": 803,
    "b)</w>": 804,
    "ssa": 805,
    "qk": 806,
    "ON": 807,
    "Example": 808,
    "fol": 809,
    "[0]</w>": 810,
    "!=</w>": 811,
    "np.array": 812,
    "our</w>": 813,
    ".jo": 814,
    "traver": 815,
    "SI": 816,
    "curr": 817,
    "solu": 818,
    "messa": 819,
    "FFFF": 820,
    "layer": 821,
    "grad": 822,
    "ME": 823,
    "SE": 824,
    "n_embed": 825,
    "Any": 826,
    "implementation</w>": 827,
    ":return:</w>": 828,
    "lob": 829,
    "\").stri": 830,
    "qui": 831,
    "**k": 832,
    "fib_recursive_": 833,
    "speci": 834,
    "Hel": 835,
    "Linked": 836,
    "LinkedLi": 837,
    "\".jo": 838,
    "exi": 839,
    "ha": 840,
    "str)</w>": 841,
    "binary_search_": 842,
    "lower": 843,
    "sequence": 844,
    "exponent</w>": 845,
    "args</w>": 846,
    "dim": 847,
    "usr/share": 848,
    "usr/share/": 849,
    "etc/": 850,
    "_size": 851,
    "link.": 852,
    "algorithm</w>": 853,
    "items</w>": 854,
    "random.": 855,
    "num_": 856,
    "glob": 857,
    "s\")</w>": 858,
    "anno": 859,
    "y(": 860,
    "can</w>": 861,
    "over": 862,
    "primes(": 863,
    "(self):</w>": 864,
    "6</w>": 865,
    "given</w>": 866,
    "Error:</w>": 867,
    "4)</w>": 868,
    "found</w>": 869,
    "cryp": 870,
    "cipher": 871,
    "`</w>": 872,
    "========": 873,
    "''": 874,
    "gam": 875,
    "tuple[": 876,
    "cfg.": 877,
    "tok</w>": 878,
    "bat": 879,
    "RE": 880,
    "info": 881,
    "\"/etc/": 882,
    "_C": 883,
    "Tokeni": 884,
    "context_": 885,
    "plic": 886,
    ".__": 887,
    "order</w>": 888,
    "Examples:</w>": 889,
    "letter": 890,
    "bre": 891,
    "brea": 892,
    "_inpu": 893,
    "pi": 894,
    "remo": 895,
    "T</w>": 896,
    "9,</w>": 897,
    "Fibonacci</w>": 898,
    "memo": 899,
    "ols</w>": 900,
    "sqr": 901,
    "]],</w>": 902,
    "result": 903,
    "_000": 904,
    "all(": 905,
    "ld": 906,
    "LinkedList()</w>": 907,
    "next_node</w>": 908,
    "parti": 909,
    "\".join(": 910,
    "pass</w>": 911,
    "graph": 912,
    "\"],</w>": 913,
    ":,": 914,
    "divi": 915,
    "x)</w>": 916,
    "binary_exp_mod_": 917,
    "n.": 918,
    "bc[\"": 919,
    "logit": 920,
    "add_grad(": 921,
    "root.": 922,
    "self._": 923,
    "wrapper</w>": 924,
    "7.": 925,
    "4.": 926,
    "leng": 927,
    "break</w>": 928,
    "For</w>": 929,
    "item)</w>": 930,
    "initi": 931,
    "org": 932,
    "org/": 933,
    "Compu": 934,
    ">=</w>": 935,
    ")))</w>": 936,
    "math.": 937,
    "ld!": 938,
    "{len(": 939,
    "__init__(self,</w>": 940,
    "Returns</w>": 941,
    "0':</w>": 942,
    "HA": 943,
    "is_palindro": 944,
    "key)</w>": 945,
    "continue</w>": 946,
    "atest_com": 947,
    "atest_common_": 948,
    "atest_common_divi": 949,
    "gc": 950,
    "x:</w>": 951,
    "(a</w>": 952,
    "sum(": 953,
    "ru": 954,
    "proces": 955,
    ".parameter": 956,
    "Path": 957,
    "re.": 958,
    "chunk": 959,
    "LT": 960,
    "val_los": 961,
    "wrapped</w>": 962,
    "some</w>": 963,
    "comparable</w>": 964,
    "2])</w>": 965,
    "5]</w>": 966,
    "[1,</w>": 967,
    "else</w>": 968,
    "1:</w>": 969,
    "list[int],</w>": 970,
    "i,</w>": 971,
    "memoi": 972,
    "func(": 973,
    "s):</w>": 974,
    "out": 975,
    "dict[": 976,
    "power": 977,
    "page": 978,
    "6)</w>": 979,
    "nth": 980,
    "link</w>": 981,
    "should</w>": 982,
    "9</w>": 983,
    "main()</w>": 984,
    "ful": 985,
    "{'3": 986,
    "add_ed": 987,
    "vertex</w>": 988,
    "\"E": 989,
    "items(": 990,
    "+=</w>": 991,
    "sorted_collection,</w>": 992,
    "str</w>": 993,
    "greatest_common_divi": 994,
    "greatest_common_divisor": 995,
    "case</w>": 996,
    "0x": 997,
    "sion": 998,
    "np.ndarray)</w>": 999,
    "pos_": 1000,
    "qkv": 1001,
    "verbose:</w>": 1002,
    "tok.": 1003,
    "vocab_size": 1004,
    "NLT": 1005,
    "NLTK": 1006,
    "words": 1007,
    "_A": 1008,
    "cast()</w>": 1009,
    "5])</w>": 1010,
    "-5,</w>": 1011,
    "testmod()</w>": 1012,
    "merge_": 1013,
    "single</w>": 1014,
    "user_inpu": 1015,
    "TypeV": 1016,
    "TypeVar": 1017,
    "bool:</w>": 1018,
    "Calc": 1019,
    "error": 1020,
    "'t</w>": 1021,
    "7</w>": 1022,
    "only</w>": 1023,
    "factorial": 1024,
    "S.push": 1025,
    "contain": 1026,
    "BinarySearchTree().": 1027,
    "value)</w>": 1028,
    "max(": 1029,
    "ou</w>": 1030,
    "g.add_ed": 1031,
    "\"D": 1032,
    "Mod": 1033,
    "ted:</w>": 1034,
    "Imple": 1035,
    "Implemen": 1036,
    "mean": 1037,
    "byte": 1038,
    "static": 1039,
    "b.</w>": 1040,
    "parse": 1041,
    "k,</w>": 1042,
    "trans": 1043,
    "transpo": 1044,
    "gamma": 1045,
    "self.cache": 1046,
    "attn.": 1047,
    "s.append(": 1048,
    "r\"": 1049,
    "fig": 1050,
    "batch": 1051,
    "checkpo": 1052,
    "cfg": 1053,
    "T_": 1054,
    "applic": 1055,
    "wrapped": 1056,
    "3.": 1057,
    "cho": 1058,
    "letters</w>": 1059,
    ")):</w>": 1060,
    "python</w>": 1061,
    "tw": 1062,
    "annotation": 1063,
    "a.": 1064,
    "*args,</w>": 1065,
    "**kwarg": 1066,
    "instance": 1067,
    "lo,</w>": 1068,
    "world!": 1069,
    "self.head</w>": 1070,
    "linked_list.delete_": 1071,
    "Excep": 1072,
    "8</w>": 1073,
    "have</w>": 1074,
    "LA": 1075,
    "True,</w>": 1076,
    "sorted_collection)</w>": 1077,
    "midpoint</w>": 1078,
    "prob": 1079,
    "&</w>": 1080,
    "proj": 1081,
    "solution": 1082,
    "each</w>": 1083,
    "q</w>": 1084,
    "La": 1085,
    "input_string": 1086,
    "bru": 1087,
    "ho": 1088,
    "zi": 1089,
    "FILE:</w>": 1090,
    "W,</w>": 1091,
    "------------------------------------------------------------------</w>": 1092,
    "self.cache[\"": 1093,
    ".forward(": 1094,
    "params</w>": 1095,
    "AP": 1096,
    "IN": 1097,
    "…\")</w>": 1098,
    "zer</w>": 1099,
    "=args.": 1100,
    "fre": 1101,
    "Not": 1102,
    "reque": 1103,
    "SSI": 1104,
    "('__": 1105,
    "50": 1106,
    "length</w>": 1107,
    "1):</w>": 1108,
    "ms</w>": 1109,
    "unsorted[": 1110,
    "print(\"\\n": 1111,
    "two</w>": 1112,
    "print(f\"{": 1113,
    "30,</w>": 1114,
    "https://en.": 1115,
    "wikipedi": 1116,
    "wikipedia.": 1117,
    "wikipedia.org/": 1118,
    "wikipedia.org/wiki": 1119,
    "wikipedia.org/wiki/": 1120,
    "numpy</w>": 1121,
    "ed)</w>": 1122,
    "a,</w>": 1123,
    "fib_recursive_ter": 1124,
    "flow": 1125,
    "sqrt(": 1126,
    "matrix_": 1127,
    "base": 1128,
    "ms": 1129,
    "str(linked_list)</w>": 1130,
    "current</w>": 1131,
    "H</w>": 1132,
    "Ad": 1133,
    ")},</w>": 1134,
    "arr": 1135,
    "Or": 1136,
    "PA": 1137,
    "g.add_edge(": 1138,
    "to_": 1139,
    "\"C": 1140,
    "\"F": 1141,
    "})</w>": 1142,
    "MA": 1143,
    "is_palindrome": 1144,
    "lib": 1145,
    "current_": 1146,
    "ref": 1147,
    "non-": 1148,
    "modul": 1149,
    "lem": 1150,
    "total</w>": 1151,
    "ca": 1152,
    "Ap": 1153,
    "Ke": 1154,
    "contains</w>": 1155,
    "conten": 1156,
    "transpose(": 1157,
    "GPTCon": 1158,
    "keep": 1159,
    "keepdims=": 1160,
    "b).": 1161,
    "like(": 1162,
    "):,": 1163,
    "BPETokeni": 1164,
    "n_embed,</w>": 1165,
    "rng)</w>": 1166,
    "E_": 1167,
    "ins": 1168,
    "werk": 1169,
    "werkze": 1170,
    "werkzeu": 1171,
    "werkzeug.": 1172,
    "Flas": 1173,
    "Callab": 1174,
    "'Return</w>": 1175,
    "total_ordering</w>": 1176,
    "NotImplemen": 1177,
    "spec": 1178,
    "-4": 1179,
    "2]</w>": 1180,
    "23,</w>": 1181,
    "'a": 1182,
    "'a',</w>": 1183,
    "'b": 1184,
    "choi": 1185,
    "doctest.testmod()</w>": 1186,
    "timei": 1187,
    "global": 1188,
    "input(\"Enter</w>": 1189,
    "\").strip()</w>": 1190,
    "lease</w>": 1191,
    "2:</w>": 1192,
    "posi": 1193,
    "(0,</w>": 1194,
    "negative": 1195,
    "exponenti": 1196,
    "_000_000": 1197,
    "20)</w>": 1198,
    "Hello,</w>": 1199
  }
}