{
  "merges": [
    [
      "e",
      "</w>"
    ],
    [
      "s",
      "</w>"
    ],
    [
      "t",
      "</w>"
    ],
    [
      "d",
      "</w>"
    ],
    [
      "i",
      "n"
    ],
    [
      "e",
      "r"
    ],
    [
      "y",
      "</w>"
    ],
    [
      "t",
      "h"
    ],
    [
      "a",
      "n"
    ],
    [
      "o",
      "n"
    ],
    [
      "o",
      "</w>"
    ],
    [
      "e",
      "n"
    ],
    [
      "o",
      "r"
    ],
    [
      "in",
      "g"
    ],
    [
      "a",
      "r"
    ],
    [
      "o",
      "u"
    ],
    [
      "ing",
      "</w>"
    ],
    [
      "r",
      "e"
    ],
    [
      "a",
      "l"
    ],
    [
      "t",
      "o</w>"
    ],
    [
      "a",
      "t"
    ],
    [
      "er",
      "</w>"
    ],
    [
      "e",
      "d</w>"
    ],
    [
      "a",
      "</w>"
    ],
    [
      ".",
      "</w>"
    ],
    [
      "r",
      "o"
    ],
    [
      "s",
      "t"
    ],
    [
      ",",
      "</w>"
    ],
    [
      "on",
      "</w>"
    ],
    [
      "th",
      "e</w>"
    ],
    [
      "i",
      "c"
    ],
    [
      "I",
      "</w>"
    ],
    [
      "f",
      "</w>"
    ],
    [
      "an",
      "d</w>"
    ],
    [
      "i",
      "l"
    ],
    [
      "a",
      "c"
    ],
    [
      "o",
      "w"
    ],
    [
      "i",
      "t"
    ],
    [
      "i",
      "s</w>"
    ],
    [
      "or",
      "</w>"
    ],
    [
      "m",
      "</w>"
    ],
    [
      "e",
      "s</w>"
    ],
    [
      "in",
      "</w>"
    ],
    [
      "l",
      "e"
    ],
    [
      "p",
      "</w>"
    ],
    [
      "l",
      "</w>"
    ],
    [
      "o",
      "o"
    ],
    [
      "r",
      "i"
    ],
    [
      "p",
      "p"
    ],
    [
      "o",
      "m"
    ],
    [
      "\"",
      "</w>"
    ],
    [
      "o",
      "f</w>"
    ],
    [
      "]",
      "</w>"
    ],
    [
      "c",
      "h"
    ],
    [
      "m",
      "y</w>"
    ],
    [
      "k",
      "</w>"
    ],
    [
      "u",
      "s"
    ],
    [
      "f",
      "or</w>"
    ],
    [
      "'",
      "s</w>"
    ],
    [
      "e",
      "l"
    ],
    [
      "v",
      "e</w>"
    ],
    [
      "an",
      "</w>"
    ],
    [
      "a",
      "s</w>"
    ],
    [
      "s",
      "i"
    ],
    [
      ":",
      "</w>"
    ],
    [
      "e",
      "c"
    ],
    [
      "ow",
      "</w>"
    ],
    [
      "m",
      "e</w>"
    ],
    [
      "a",
      "s"
    ],
    [
      "t",
      "i"
    ],
    [
      "u",
      "m"
    ],
    [
      "i",
      "r"
    ],
    [
      ")",
      "</w>"
    ],
    [
      "w",
      "ith"
    ],
    [
      "s",
      "h"
    ],
    [
      "n",
      "e"
    ],
    [
      "a",
      "m"
    ],
    [
      "a",
      "d"
    ],
    [
      "l",
      "y</w>"
    ],
    [
      "?",
      "</w>"
    ],
    [
      "o",
      "l"
    ],
    [
      "t",
      "s</w>"
    ],
    [
      "with",
      "</w>"
    ],
    [
      "T",
      "r"
    ],
    [
      "en",
      "</w>"
    ],
    [
      "g",
      "h"
    ],
    [
      "u",
      "n"
    ],
    [
      "T",
      "h"
    ],
    [
      "a",
      "b"
    ],
    [
      "a",
      "g"
    ],
    [
      "e",
      "s"
    ],
    [
      "l",
      "i"
    ],
    [
      "ou",
      "r"
    ],
    [
      "Tr",
      "um"
    ],
    [
      "a",
      "y</w>"
    ],
    [
      "i",
      "s"
    ],
    [
      "a",
      "y"
    ],
    [
      "A",
      "pp"
    ],
    [
      "w",
      "h"
    ],
    [
      "l",
      "o"
    ],
    [
      "M",
      "y</w>"
    ],
    [
      "en",
      "t</w>"
    ],
    [
      "ri",
      "en"
    ],
    [
      "e",
      "ar"
    ],
    [
      "a",
      "k"
    ],
    [
      "e",
      "d"
    ],
    [
      "i",
      "d"
    ],
    [
      "f",
      "rien"
    ],
    [
      "e",
      "m"
    ],
    [
      "ou",
      "t</w>"
    ],
    [
      "n",
      "</w>"
    ],
    [
      "e",
      "v"
    ],
    [
      "e",
      "x"
    ],
    [
      "S",
      "</w>"
    ],
    [
      "d",
      "o"
    ],
    [
      "'",
      "t</w>"
    ],
    [
      "O",
      "</w>"
    ],
    [
      "W",
      "h"
    ],
    [
      "w",
      "</w>"
    ],
    [
      "h",
      "a"
    ],
    [
      "s",
      "u"
    ],
    [
      "G",
      "oo"
    ],
    [
      "A",
      "</w>"
    ],
    [
      "b",
      "e"
    ],
    [
      "Trum",
      "p</w>"
    ],
    [
      "o",
      "t</w>"
    ],
    [
      "App",
      "le</w>"
    ],
    [
      "E",
      "</w>"
    ],
    [
      "Goo",
      "g"
    ],
    [
      "b",
      "o"
    ],
    [
      "o",
      "v"
    ],
    [
      "'",
      "</w>"
    ],
    [
      "b",
      "u"
    ],
    [
      "t",
      "er</w>"
    ],
    [
      "our",
      "</w>"
    ],
    [
      "[",
      "2"
    ],
    [
      "c",
      "om"
    ],
    [
      "frien",
      "d</w>"
    ],
    [
      "f",
      "rom</w>"
    ],
    [
      "o",
      "p"
    ],
    [
      "u",
      "r"
    ],
    [
      "g",
      "</w>"
    ],
    [
      "c",
      "e</w>"
    ],
    [
      "Goog",
      "le</w>"
    ],
    [
      "A",
      "n"
    ],
    [
      "e",
      "e"
    ],
    [
      "c",
      "on"
    ],
    [
      "t",
      "er"
    ],
    [
      "Th",
      "e</w>"
    ],
    [
      "B",
      "</w>"
    ],
    [
      "0",
      "</w>"
    ],
    [
      "n",
      "ow</w>"
    ],
    [
      "g",
      "e"
    ],
    [
      "at",
      "e</w>"
    ],
    [
      "w",
      "as</w>"
    ],
    [
      "t",
      "r"
    ],
    [
      "a",
      "p"
    ],
    [
      "ch",
      "</w>"
    ],
    [
      "w",
      "or"
    ],
    [
      "i",
      "gh"
    ],
    [
      "ou",
      "</w>"
    ],
    [
      "l",
      "d</w>"
    ],
    [
      "p",
      "l"
    ],
    [
      "o",
      "d"
    ],
    [
      "o",
      "t"
    ],
    [
      "(",
      "2"
    ],
    [
      "i",
      "m"
    ],
    [
      "h",
      "one</w>"
    ],
    [
      "I",
      "n"
    ],
    [
      "f",
      "f"
    ],
    [
      "il",
      "l</w>"
    ],
    [
      "-",
      "</w>"
    ],
    [
      "y",
      "ear"
    ],
    [
      "I",
      "'"
    ],
    [
      "Y",
      "</w>"
    ],
    [
      "p",
      "u"
    ],
    [
      "N",
      "e"
    ],
    [
      "S",
      "t"
    ],
    [
      "ha",
      "ve</w>"
    ],
    [
      "!",
      "</w>"
    ],
    [
      "w",
      "an"
    ],
    [
      "al",
      "ly</w>"
    ],
    [
      ".",
      "\"</w>"
    ],
    [
      "an",
      "d"
    ],
    [
      "h",
      "er</w>"
    ],
    [
      "i",
      "P"
    ],
    [
      "ou",
      "ld</w>"
    ],
    [
      "bo",
      "y"
    ],
    [
      "ati",
      "on</w>"
    ],
    [
      "n",
      "ot</w>"
    ],
    [
      "p",
      "d"
    ],
    [
      "h",
      "e</w>"
    ],
    [
      "er",
      "s</w>"
    ],
    [
      "f",
      "or"
    ],
    [
      "ar",
      "t"
    ],
    [
      "R",
      "e"
    ],
    [
      "y",
      "ou</w>"
    ],
    [
      "u",
      "p</w>"
    ],
    [
      "ati",
      "on"
    ],
    [
      "th",
      "e"
    ],
    [
      "An",
      "d"
    ],
    [
      "i",
      "f"
    ],
    [
      "u",
      "c"
    ],
    [
      "ac",
      "k"
    ],
    [
      "al",
      "l</w>"
    ],
    [
      "e",
      ".</w>"
    ],
    [
      "And",
      "ro"
    ],
    [
      "u",
      "l"
    ],
    [
      "en",
      "t"
    ],
    [
      "b",
      "y</w>"
    ],
    [
      "ay",
      "s</w>"
    ],
    [
      "q",
      "u"
    ],
    [
      "O",
      "S</w>"
    ],
    [
      "a",
      "f"
    ],
    [
      "s",
      ",</w>"
    ],
    [
      "s",
      "p"
    ],
    [
      "e",
      "t"
    ],
    [
      "ne",
      "w</w>"
    ],
    [
      "2",
      "0"
    ],
    [
      "I'",
      "m</w>"
    ],
    [
      "P",
      "l"
    ],
    [
      "d",
      "s</w>"
    ],
    [
      "us",
      "e</w>"
    ],
    [
      "ak",
      "e</w>"
    ],
    [
      "l",
      "a"
    ],
    [
      "Andro",
      "id</w>"
    ],
    [
      "g",
      "ir"
    ],
    [
      "n",
      "'t</w>"
    ],
    [
      "th",
      "is</w>"
    ],
    [
      "a",
      "v"
    ],
    [
      "g",
      "r"
    ],
    [
      "S",
      "h"
    ],
    [
      "p",
      "o"
    ],
    [
      "k",
      "s</w>"
    ],
    [
      "L",
      "</w>"
    ],
    [
      "bu",
      "t</w>"
    ],
    [
      "C",
      "</w>"
    ],
    [
      "x",
      "</w>"
    ],
    [
      "I",
      "s</w>"
    ],
    [
      "s",
      "e</w>"
    ],
    [
      "\"",
      "\""
    ],
    [
      "k",
      "e</w>"
    ],
    [
      "t",
      "ed</w>"
    ],
    [
      "H",
      "ow</w>"
    ],
    [
      ".",
      "."
    ],
    [
      "D",
      "</w>"
    ],
    [
      "/",
      "f"
    ],
    [
      "k",
      "ing</w>"
    ],
    [
      "w",
      "ill</w>"
    ],
    [
      "8",
      "</w>"
    ],
    [
      "s",
      "c"
    ],
    [
      "j",
      "ust</w>"
    ],
    [
      "Trum",
      "p"
    ],
    [
      "u",
      "t"
    ],
    [
      "5",
      "</w>"
    ],
    [
      "h",
      "is</w>"
    ],
    [
      "d",
      "i"
    ],
    [
      "b",
      "</w>"
    ],
    [
      "y",
      "our</w>"
    ],
    [
      "s",
      ".</w>"
    ],
    [
      "p",
      "er"
    ],
    [
      "o",
      "c"
    ],
    [
      "at",
      "e"
    ],
    [
      "?",
      "\"</w>"
    ],
    [
      "F",
      "]</w>"
    ],
    [
      "c",
      "an</w>"
    ],
    [
      "ac",
      "c"
    ],
    [
      "R",
      "</w>"
    ],
    [
      "iP",
      "hone</w>"
    ],
    [
      "d",
      "e"
    ],
    [
      "U",
      "pd"
    ],
    [
      "[",
      "3"
    ],
    [
      "/",
      "m"
    ],
    [
      "i",
      "</w>"
    ],
    [
      "1",
      "</w>"
    ],
    [
      "M",
      "ac"
    ],
    [
      "af",
      "ter</w>"
    ],
    [
      "gir",
      "l"
    ],
    [
      "M",
      "]</w>"
    ],
    [
      "2",
      "</w>"
    ],
    [
      "v",
      "er"
    ],
    [
      "7",
      "</w>"
    ],
    [
      "p",
      "h"
    ],
    [
      "G",
      "</w>"
    ],
    [
      "ar",
      "</w>"
    ],
    [
      "om",
      "e"
    ],
    [
      "T",
      "</w>"
    ],
    [
      "A",
      "m"
    ],
    [
      "ir",
      "</w>"
    ],
    [
      "th",
      "</w>"
    ],
    [
      "0",
      "0"
    ],
    [
      "m",
      "ent</w>"
    ],
    [
      "p",
      "e"
    ],
    [
      "an",
      "y</w>"
    ],
    [
      "us",
      "si"
    ],
    [
      "ti",
      "on</w>"
    ],
    [
      "C",
      "on"
    ],
    [
      "a",
      "in"
    ],
    [
      "h",
      "e"
    ],
    [
      "D",
      "on"
    ],
    [
      "g",
      "n"
    ],
    [
      "o",
      "st</w>"
    ],
    [
      "D",
      "A"
    ],
    [
      "R",
      "ussi"
    ],
    [
      "g",
      "o</w>"
    ],
    [
      "g",
      "i"
    ],
    [
      "i",
      "OS</w>"
    ],
    [
      "\"",
      "["
    ],
    [
      "wan",
      "ts</w>"
    ],
    [
      "U",
      "P"
    ],
    [
      "a",
      "w"
    ],
    [
      "P",
      "</w>"
    ],
    [
      "Don",
      "ald</w>"
    ],
    [
      "if",
      "e</w>"
    ],
    [
      "an",
      "t</w>"
    ],
    [
      "p",
      "ro"
    ],
    [
      "as",
      "s"
    ],
    [
      "3",
      "</w>"
    ],
    [
      "N",
      "</w>"
    ],
    [
      "an",
      "c"
    ],
    [
      "o",
      "ff"
    ],
    [
      "UP",
      "DA"
    ],
    [
      "UPDA",
      "T"
    ],
    [
      "e",
      ",</w>"
    ],
    [
      "k",
      "ed</w>"
    ],
    [
      "a",
      "use</w>"
    ],
    [
      "ti",
      "on"
    ],
    [
      "m",
      "on"
    ],
    [
      "g",
      "u"
    ],
    [
      "ala",
      "x"
    ],
    [
      "wh",
      "o</w>"
    ],
    [
      "s",
      "ays</w>"
    ],
    [
      "G",
      "alax"
    ],
    [
      "year",
      "s</w>"
    ],
    [
      "Galax",
      "y</w>"
    ],
    [
      "oun",
      "d</w>"
    ],
    [
      "girl",
      "friend</w>"
    ],
    [
      "w",
      "e</w>"
    ],
    [
      "Trump",
      "'s</w>"
    ],
    [
      "boy",
      "friend</w>"
    ],
    [
      "f",
      "in"
    ],
    [
      "it",
      "e</w>"
    ],
    [
      "s",
      "el"
    ],
    [
      "sh",
      "i"
    ],
    [
      "20",
      "1"
    ],
    [
      "do",
      "es</w>"
    ],
    [
      "s",
      "m"
    ],
    [
      "y",
      "ing</w>"
    ],
    [
      "o",
      "b"
    ],
    [
      "A",
      "l"
    ],
    [
      "u",
      "p"
    ],
    [
      "es",
      "s"
    ],
    [
      "Ne",
      "w</w>"
    ],
    [
      "al",
      "l"
    ],
    [
      "li",
      "ke</w>"
    ],
    [
      "UPDAT",
      "E"
    ],
    [
      "f",
      "ir"
    ],
    [
      "ar",
      "d</w>"
    ],
    [
      "frien",
      "d"
    ],
    [
      "g",
      "o"
    ],
    [
      "6",
      "</w>"
    ],
    [
      "/f",
      "]</w>"
    ],
    [
      "h",
      "ow</w>"
    ],
    [
      "oo",
      "k</w>"
    ],
    [
      "E",
      "x"
    ],
    [
      "at",
      "t"
    ],
    [
      "N",
      ":</w>"
    ],
    [
      "the",
      "y</w>"
    ],
    [
      "sh",
      "ould</w>"
    ],
    [
      "i",
      "e"
    ],
    [
      "igh",
      "t</w>"
    ],
    [
      "i",
      "x"
    ],
    [
      "S",
      "am"
    ],
    [
      "n",
      "o</w>"
    ],
    [
      "w",
      "e"
    ],
    [
      "us",
      "b"
    ],
    [
      "/m",
      "]</w>"
    ],
    [
      "s",
      "o</w>"
    ],
    [
      "be",
      "ing</w>"
    ],
    [
      "Sam",
      "sun"
    ],
    [
      "an",
      "y"
    ],
    [
      "bec",
      "ause</w>"
    ],
    [
      "H",
      "N:</w>"
    ],
    [
      "A",
      "s"
    ],
    [
      "e",
      "p"
    ],
    [
      "le",
      "g"
    ],
    [
      "a",
      "id</w>"
    ],
    [
      "Upd",
      "ate"
    ],
    [
      "the",
      "ir</w>"
    ],
    [
      "a",
      "z"
    ],
    [
      "C",
      "h"
    ],
    [
      "th",
      "in"
    ],
    [
      "us",
      "ed</w>"
    ],
    [
      "b",
      "ack</w>"
    ],
    [
      "F",
      "</w>"
    ],
    [
      "F",
      ")</w>"
    ],
    [
      "U",
      "n"
    ],
    [
      "C",
      "om"
    ],
    [
      "a",
      "u"
    ],
    [
      "o",
      "f"
    ],
    [
      "n",
      "ow"
    ],
    [
      "..",
      ".</w>"
    ],
    [
      "M",
      "</w>"
    ],
    [
      "f",
      "ound</w>"
    ],
    [
      "k",
      "in</w>"
    ],
    [
      "M",
      ")</w>"
    ],
    [
      "h",
      "usb"
    ],
    [
      "\"",
      "My</w>"
    ],
    [
      "y",
      ",</w>"
    ],
    [
      "m",
      "ar"
    ],
    [
      "Samsun",
      "g</w>"
    ],
    [
      "in",
      "to</w>"
    ],
    [
      "an",
      "s</w>"
    ],
    [
      "ab",
      "le</w>"
    ],
    [
      "(",
      "3"
    ],
    [
      "gh",
      "t</w>"
    ],
    [
      "m",
      "ore</w>"
    ],
    [
      "s",
      "ec"
    ],
    [
      "n",
      "ing</w>"
    ],
    [
      "w",
      "ife</w>"
    ],
    [
      "in",
      "v"
    ],
    [
      ";",
      "</w>"
    ],
    [
      "Wh",
      "y</w>"
    ],
    [
      "mon",
      "th"
    ],
    [
      "s",
      "\"</w>"
    ],
    [
      "E",
      "n"
    ],
    [
      "4",
      "</w>"
    ],
    [
      "am",
      "p"
    ],
    [
      "wor",
      "k</w>"
    ],
    [
      "t",
      "o"
    ],
    [
      "Pl",
      "us</w>"
    ],
    [
      "b",
      "am"
    ],
    [
      "a",
      "il</w>"
    ],
    [
      "th",
      "re"
    ],
    [
      "H",
      "e</w>"
    ],
    [
      "f",
      "e"
    ],
    [
      "k",
      "now</w>"
    ],
    [
      "L",
      "e"
    ],
    [
      "h",
      "im</w>"
    ],
    [
      "S",
      "8</w>"
    ],
    [
      "i",
      "al</w>"
    ],
    [
      "com",
      "p"
    ],
    [
      "l",
      "u"
    ],
    [
      "U",
      "S</w>"
    ],
    [
      "s",
      "on"
    ],
    [
      "m",
      "ost</w>"
    ],
    [
      "com",
      "m"
    ],
    [
      "A",
      "A"
    ],
    [
      "d",
      "ay</w>"
    ],
    [
      "s",
      "en"
    ],
    [
      "Mac",
      "</w>"
    ],
    [
      "with",
      "out</w>"
    ],
    [
      "plo",
      "y"
    ],
    [
      "S",
      "c"
    ],
    [
      "H",
      "ouse</w>"
    ],
    [
      "t",
      "w"
    ],
    [
      "ri",
      "v"
    ],
    [
      "an",
      "t"
    ],
    [
      "b",
      "re"
    ],
    [
      "s",
      ":</w>"
    ],
    [
      "hec",
      "kin</w>"
    ],
    [
      "w",
      "it"
    ],
    [
      "K",
      "</w>"
    ],
    [
      "s",
      "er"
    ],
    [
      "B",
      "o"
    ],
    [
      "m",
      "in"
    ],
    [
      "y",
      ".</w>"
    ],
    [
      "wh",
      "ile</w>"
    ],
    [
      "s",
      "ome</w>"
    ],
    [
      "m",
      "ade</w>"
    ],
    [
      "U",
      "</w>"
    ],
    [
      "b",
      "i"
    ],
    [
      "D",
      "o"
    ],
    [
      "do",
      "g"
    ],
    [
      "husb",
      "and</w>"
    ],
    [
      "O",
      "ne"
    ],
    [
      "t",
      "el"
    ],
    [
      "N",
      "ow</w>"
    ],
    [
      "Russi",
      "a</w>"
    ],
    [
      "in",
      "ter"
    ],
    [
      "9",
      "</w>"
    ],
    [
      "shi",
      "p</w>"
    ],
    [
      "v",
      "ide"
    ],
    [
      "u",
      "e</w>"
    ],
    [
      "s",
      "?</w>"
    ],
    [
      "boy",
      "e</w>"
    ],
    [
      "c",
      "r"
    ],
    [
      "ac",
      "e"
    ],
    [
      "an",
      "n"
    ],
    [
      "W",
      "or"
    ],
    [
      "1",
      "0"
    ],
    [
      "fir",
      "st</w>"
    ],
    [
      "s",
      "'</w>"
    ],
    [
      "P",
      "ix"
    ],
    [
      "t",
      "y</w>"
    ],
    [
      "s",
      "of"
    ],
    [
      "t",
      "'s</w>"
    ],
    [
      "A",
      "]</w>"
    ],
    [
      "m",
      "ake</w>"
    ],
    [
      "m",
      "e"
    ],
    [
      "W",
      "e</w>"
    ],
    [
      "Y",
      "ou</w>"
    ],
    [
      "gh",
      "</w>"
    ],
    [
      "P",
      "ro"
    ],
    [
      "ar",
      "y</w>"
    ],
    [
      "thin",
      "k</w>"
    ],
    [
      "ot",
      "e</w>"
    ],
    [
      "W",
      "e"
    ],
    [
      "v",
      "v"
    ],
    [
      "+",
      "</w>"
    ],
    [
      "i",
      "v"
    ],
    [
      "\"",
      "I</w>"
    ],
    [
      "c",
      "la"
    ],
    [
      "Wh",
      "ite</w>"
    ],
    [
      "UPDATE",
      "]</w>"
    ],
    [
      "[",
      "1"
    ],
    [
      "Apple",
      "'s</w>"
    ],
    [
      "oun",
      "c"
    ],
    [
      "p",
      "ay</w>"
    ],
    [
      "I",
      "t</w>"
    ],
    [
      "pe",
      "ople</w>"
    ],
    [
      "1",
      "1</w>"
    ],
    [
      "A",
      "c"
    ],
    [
      "ak",
      "es</w>"
    ],
    [
      "esti",
      "g"
    ],
    [
      "s",
      "e"
    ],
    [
      "A",
      "ir"
    ],
    [
      "Am",
      "az"
    ],
    [
      "dow",
      "n</w>"
    ],
    [
      "es",
      "n't</w>"
    ],
    [
      "f",
      "ul"
    ],
    [
      "X",
      "</w>"
    ],
    [
      "re",
      "f"
    ],
    [
      "at",
      "ch</w>"
    ],
    [
      "ad",
      "v"
    ],
    [
      "w",
      "s</w>"
    ],
    [
      "did",
      "n't</w>"
    ],
    [
      "One",
      "Plus</w>"
    ],
    [
      "Q",
      "u"
    ],
    [
      "A",
      "d"
    ],
    [
      "p",
      "ic"
    ],
    [
      "app",
      "s</w>"
    ],
    [
      "k",
      "er</w>"
    ],
    [
      "t",
      ".</w>"
    ],
    [
      "il",
      "li"
    ],
    [
      "j",
      "ec"
    ],
    [
      "month",
      "s</w>"
    ],
    [
      "w",
      "ay</w>"
    ],
    [
      "D",
      "e"
    ],
    [
      "off",
      "ic"
    ],
    [
      "%",
      "</w>"
    ],
    [
      "I",
      "t's</w>"
    ],
    [
      "P",
      "h"
    ],
    [
      "f",
      "t</w>"
    ],
    [
      "r",
      "u"
    ],
    [
      "f",
      "am"
    ],
    [
      "go",
      "ing</w>"
    ],
    [
      "ation",
      "s</w>"
    ],
    [
      "b",
      "le</w>"
    ],
    [
      "b",
      "ro"
    ],
    [
      "ag",
      "ain"
    ],
    [
      "u",
      "al</w>"
    ],
    [
      "w",
      "ould</w>"
    ],
    [
      "B",
      "e"
    ],
    [
      "leg",
      "al</w>"
    ],
    [
      "Pix",
      "el</w>"
    ],
    [
      "P",
      "resident</w>"
    ],
    [
      "F",
      "ace"
    ],
    [
      "sel",
      "f</w>"
    ],
    [
      "a",
      "il"
    ],
    [
      "m",
      "ov"
    ],
    [
      "t",
      "al"
    ],
    [
      "In",
      "ter"
    ],
    [
      "c",
      "ar</w>"
    ],
    [
      "H",
      "</w>"
    ],
    [
      "[2",
      "5"
    ],
    [
      "/",
      "F]</w>"
    ],
    [
      "c",
      "an't</w>"
    ],
    [
      "c",
      "o"
    ],
    [
      "b",
      "ack"
    ],
    [
      "B",
      "u"
    ],
    [
      "s",
      "ome"
    ],
    [
      "w",
      "on't</w>"
    ],
    [
      "S",
      "en"
    ],
    [
      "O",
      "bam"
    ],
    [
      "ne",
      "igh"
    ],
    [
      "U",
      "S"
    ],
    [
      "do",
      "esn't</w>"
    ],
    [
      "h",
      "ome</w>"
    ],
    [
      ".",
      "0</w>"
    ],
    [
      "Update",
      "]</w>"
    ],
    [
      "lor",
      "d</w>"
    ],
    [
      "fe",
      "at"
    ],
    [
      "y",
      "n"
    ],
    [
      "st",
      "u"
    ],
    [
      "m",
      "is"
    ],
    [
      "t",
      "ake</w>"
    ],
    [
      "i",
      "z"
    ],
    [
      "T",
      "o</w>"
    ],
    [
      "re",
      "ally</w>"
    ],
    [
      "usic",
      "</w>"
    ],
    [
      "b",
      "lic"
    ],
    [
      "c",
      "ar"
    ],
    [
      "M",
      "ar"
    ],
    [
      "Russi",
      "an</w>"
    ],
    [
      "f",
      "ren"
    ],
    [
      "/f",
      ")</w>"
    ],
    [
      "/",
      "M]</w>"
    ],
    [
      "em",
      "ploy"
    ],
    [
      "t",
      "ur"
    ],
    [
      "al",
      "s</w>"
    ],
    [
      "ic",
      "es</w>"
    ],
    [
      "&",
      "amp"
    ],
    [
      "V",
      "</w>"
    ],
    [
      "F",
      "or"
    ],
    [
      "s",
      "our"
    ],
    [
      "p",
      "re"
    ],
    [
      "t",
      "e"
    ],
    [
      "Goog",
      "le"
    ],
    [
      "ever",
      "y"
    ],
    [
      "Amaz",
      "on</w>"
    ],
    [
      "H",
      "e"
    ],
    [
      "in",
      "d</w>"
    ],
    [
      "a",
      "i"
    ],
    [
      "ic",
      "</w>"
    ],
    [
      "ow",
      "n</w>"
    ],
    [
      "h",
      "im"
    ],
    [
      "G",
      "ir"
    ],
    [
      "dow",
      "n"
    ],
    [
      ",",
      "00"
    ],
    [
      "on",
      "s</w>"
    ],
    [
      "h",
      "ouse</w>"
    ],
    [
      "ch",
      "ild</w>"
    ],
    [
      "an",
      "s"
    ],
    [
      "hav",
      "ing</w>"
    ],
    [
      "Face",
      "book</w>"
    ],
    [
      "on",
      "ly</w>"
    ],
    [
      "I'",
      "ve</w>"
    ],
    [
      "C",
      "an</w>"
    ],
    [
      "trod",
      "uc"
    ],
    [
      "m",
      "uch</w>"
    ],
    [
      "i",
      "a"
    ],
    [
      "get",
      "ting</w>"
    ],
    [
      "Sh",
      "ould</w>"
    ],
    [
      "[",
      "UPDATE]</w>"
    ],
    [
      "tr",
      "ying</w>"
    ],
    [
      "A",
      "P"
    ],
    [
      "ie",
      "w</w>"
    ],
    [
      "&amp",
      ";</w>"
    ],
    [
      "all",
      "s</w>"
    ],
    [
      "'",
      "re</w>"
    ],
    [
      "E",
      "m"
    ],
    [
      "[2",
      "3"
    ],
    [
      "[2",
      "4"
    ],
    [
      "ac",
      "t</w>"
    ],
    [
      "s",
      "y"
    ],
    [
      "per",
      "son"
    ],
    [
      "n",
      "s</w>"
    ],
    [
      "be",
      "fore</w>"
    ],
    [
      "N",
      "ot</w>"
    ],
    [
      "le",
      "ft</w>"
    ],
    [
      "inv",
      "estig"
    ]
  ],
  "vocab": {
    "<PAD>": 0,
    "<UNK>": 1,
    "<BOS>": 2,
    "<EOS>": 3,
    "!": 4,
    "\"": 5,
    "#": 6,
    "$": 7,
    "%": 8,
    "&": 9,
    "'": 10,
    "(": 11,
    ")": 12,
    "*": 13,
    "+": 14,
    ",": 15,
    "-": 16,
    ".": 17,
    "/": 18,
    "0": 19,
    "1": 20,
    "2": 21,
    "3": 22,
    "4": 23,
    "5": 24,
    "6": 25,
    "7": 26,
    "8": 27,
    "9": 28,
    ":": 29,
    ";": 30,
    "</w>": 31,
    "=": 32,
    "?": 33,
    "@": 34,
    "A": 35,
    "B": 36,
    "C": 37,
    "D": 38,
    "E": 39,
    "F": 40,
    "G": 41,
    "H": 42,
    "I": 43,
    "J": 44,
    "K": 45,
    "L": 46,
    "M": 47,
    "N": 48,
    "O": 49,
    "P": 50,
    "Q": 51,
    "R": 52,
    "S": 53,
    "T": 54,
    "U": 55,
    "V": 56,
    "W": 57,
    "X": 58,
    "Y": 59,
    "Z": 60,
    "[": 61,
    "\\": 62,
    "]": 63,
    "^": 64,
    "_": 65,
    "`": 66,
    "a": 67,
    "b": 68,
    "c": 69,
    "d": 70,
    "e": 71,
    "f": 72,
    "g": 73,
    "h": 74,
    "i": 75,
    "j": 76,
    "k": 77,
    "l": 78,
    "m": 79,
    "n": 80,
    "o": 81,
    "p": 82,
    "q": 83,
    "r": 84,
    "s": 85,
    "t": 86,
    "u": 87,
    "v": 88,
    "w": 89,
    "x": 90,
    "y": 91,
    "z": 92,
    "{": 93,
    "|": 94,
    "}": 95,
    "~": 96,
    "¡": 97,
    "£": 98,
    "¯": 99,
    "°": 100,
    "µ": 101,
    "½": 102,
    "â": 103,
    "è": 104,
    "é": 105,
    "ಠ": 106,
    "​": 107,
    "‑": 108,
    "•": 109,
    "‪": 110,
    "‬": 111,
    "′": 112,
    "″": 113,
    "₤": 114,
    "€": 115,
    "₹": 116,
    "⇧": 117,
    "≈": 118,
    "≠": 119,
    "⌘": 120,
    "▲": 121,
    "☁": 122,
    "✔": 123,
    "❤": 124,
    "ツ": 125,
    "㎃": 126,
    "️": 127,
    "﻿": 128,
    "Ｂ": 129,
    "Ｅ": 130,
    "Ｈ": 131,
    "Ｍ": 132,
    "Ｏ": 133,
    "Ｒ": 134,
    "Ｔ": 135,
    "Ｙ": 136,
    "�": 137,
    "e</w>": 138,
    "s</w>": 139,
    "t</w>": 140,
    "d</w>": 141,
    "in": 142,
    "er": 143,
    "y</w>": 144,
    "th": 145,
    "an": 146,
    "on": 147,
    "o</w>": 148,
    "en": 149,
    "or": 150,
    "ing": 151,
    "ar": 152,
    "ou": 153,
    "ing</w>": 154,
    "re": 155,
    "al": 156,
    "to</w>": 157,
    "at": 158,
    "er</w>": 159,
    "ed</w>": 160,
    "a</w>": 161,
    ".</w>": 162,
    "ro": 163,
    "st": 164,
    ",</w>": 165,
    "on</w>": 166,
    "the</w>": 167,
    "ic": 168,
    "I</w>": 169,
    "f</w>": 170,
    "and</w>": 171,
    "il": 172,
    "ac": 173,
    "ow": 174,
    "it": 175,
    "is</w>": 176,
    "or</w>": 177,
    "m</w>": 178,
    "es</w>": 179,
    "in</w>": 180,
    "le": 181,
    "p</w>": 182,
    "l</w>": 183,
    "oo": 184,
    "ri": 185,
    "pp": 186,
    "om": 187,
    "\"</w>": 188,
    "of</w>": 189,
    "]</w>": 190,
    "ch": 191,
    "my</w>": 192,
    "k</w>": 193,
    "us": 194,
    "for</w>": 195,
    "'s</w>": 196,
    "el": 197,
    "ve</w>": 198,
    "an</w>": 199,
    "as</w>": 200,
    "si": 201,
    ":</w>": 202,
    "ec": 203,
    "ow</w>": 204,
    "me</w>": 205,
    "as": 206,
    "ti": 207,
    "um": 208,
    "ir": 209,
    ")</w>": 210,
    "with": 211,
    "sh": 212,
    "ne": 213,
    "am": 214,
    "ad": 215,
    "ly</w>": 216,
    "?</w>": 217,
    "ol": 218,
    "ts</w>": 219,
    "with</w>": 220,
    "Tr": 221,
    "en</w>": 222,
    "gh": 223,
    "un": 224,
    "Th": 225,
    "ab": 226,
    "ag": 227,
    "es": 228,
    "li": 229,
    "our": 230,
    "Trum": 231,
    "ay</w>": 232,
    "is": 233,
    "ay": 234,
    "App": 235,
    "wh": 236,
    "lo": 237,
    "My</w>": 238,
    "ent</w>": 239,
    "rien": 240,
    "ear": 241,
    "ak": 242,
    "ed": 243,
    "id": 244,
    "frien": 245,
    "em": 246,
    "out</w>": 247,
    "n</w>": 248,
    "ev": 249,
    "ex": 250,
    "S</w>": 251,
    "do": 252,
    "'t</w>": 253,
    "O</w>": 254,
    "Wh": 255,
    "w</w>": 256,
    "ha": 257,
    "su": 258,
    "Goo": 259,
    "A</w>": 260,
    "be": 261,
    "Trump</w>": 262,
    "ot</w>": 263,
    "Apple</w>": 264,
    "E</w>": 265,
    "Goog": 266,
    "bo": 267,
    "ov": 268,
    "'</w>": 269,
    "bu": 270,
    "ter</w>": 271,
    "our</w>": 272,
    "[2": 273,
    "com": 274,
    "friend</w>": 275,
    "from</w>": 276,
    "op": 277,
    "ur": 278,
    "g</w>": 279,
    "ce</w>": 280,
    "Google</w>": 281,
    "An": 282,
    "ee": 283,
    "con": 284,
    "ter": 285,
    "The</w>": 286,
    "B</w>": 287,
    "0</w>": 288,
    "now</w>": 289,
    "ge": 290,
    "ate</w>": 291,
    "was</w>": 292,
    "tr": 293,
    "ap": 294,
    "ch</w>": 295,
    "wor": 296,
    "igh": 297,
    "ou</w>": 298,
    "ld</w>": 299,
    "pl": 300,
    "od": 301,
    "ot": 302,
    "(2": 303,
    "im": 304,
    "hone</w>": 305,
    "In": 306,
    "ff": 307,
    "ill</w>": 308,
    "-</w>": 309,
    "year": 310,
    "I'": 311,
    "Y</w>": 312,
    "pu": 313,
    "Ne": 314,
    "St": 315,
    "have</w>": 316,
    "!</w>": 317,
    "wan": 318,
    "ally</w>": 319,
    ".\"</w>": 320,
    "and": 321,
    "her</w>": 322,
    "iP": 323,
    "ould</w>": 324,
    "boy": 325,
    "ation</w>": 326,
    "not</w>": 327,
    "pd": 328,
    "he</w>": 329,
    "ers</w>": 330,
    "for": 331,
    "art": 332,
    "Re": 333,
    "you</w>": 334,
    "up</w>": 335,
    "ation": 336,
    "the": 337,
    "And": 338,
    "if": 339,
    "uc": 340,
    "ack": 341,
    "all</w>": 342,
    "e.</w>": 343,
    "Andro": 344,
    "ul": 345,
    "ent": 346,
    "by</w>": 347,
    "ays</w>": 348,
    "qu": 349,
    "OS</w>": 350,
    "af": 351,
    "s,</w>": 352,
    "sp": 353,
    "et": 354,
    "new</w>": 355,
    "20": 356,
    "I'm</w>": 357,
    "Pl": 358,
    "ds</w>": 359,
    "use</w>": 360,
    "ake</w>": 361,
    "la": 362,
    "Android</w>": 363,
    "gir": 364,
    "n't</w>": 365,
    "this</w>": 366,
    "av": 367,
    "gr": 368,
    "Sh": 369,
    "po": 370,
    "ks</w>": 371,
    "L</w>": 372,
    "but</w>": 373,
    "C</w>": 374,
    "x</w>": 375,
    "Is</w>": 376,
    "se</w>": 377,
    "\"\"": 378,
    "ke</w>": 379,
    "ted</w>": 380,
    "How</w>": 381,
    "..": 382,
    "D</w>": 383,
    "/f": 384,
    "king</w>": 385,
    "will</w>": 386,
    "8</w>": 387,
    "sc": 388,
    "just</w>": 389,
    "Trump": 390,
    "ut": 391,
    "5</w>": 392,
    "his</w>": 393,
    "di": 394,
    "b</w>": 395,
    "your</w>": 396,
    "s.</w>": 397,
    "per": 398,
    "oc": 399,
    "ate": 400,
    "?\"</w>": 401,
    "F]</w>": 402,
    "can</w>": 403,
    "acc": 404,
    "R</w>": 405,
    "iPhone</w>": 406,
    "de": 407,
    "Upd": 408,
    "[3": 409,
    "/m": 410,
    "i</w>": 411,
    "1</w>": 412,
    "Mac": 413,
    "after</w>": 414,
    "girl": 415,
    "M]</w>": 416,
    "2</w>": 417,
    "ver": 418,
    "7</w>": 419,
    "ph": 420,
    "G</w>": 421,
    "ar</w>": 422,
    "ome": 423,
    "T</w>": 424,
    "Am": 425,
    "ir</w>": 426,
    "th</w>": 427,
    "00": 428,
    "ment</w>": 429,
    "pe": 430,
    "any</w>": 431,
    "ussi": 432,
    "tion</w>": 433,
    "Con": 434,
    "ain": 435,
    "he": 436,
    "Don": 437,
    "gn": 438,
    "ost</w>": 439,
    "DA": 440,
    "Russi": 441,
    "go</w>": 442,
    "gi": 443,
    "iOS</w>": 444,
    "\"[": 445,
    "wants</w>": 446,
    "UP": 447,
    "aw": 448,
    "P</w>": 449,
    "Donald</w>": 450,
    "ife</w>": 451,
    "ant</w>": 452,
    "pro": 453,
    "ass": 454,
    "3</w>": 455,
    "N</w>": 456,
    "anc": 457,
    "off": 458,
    "UPDA": 459,
    "UPDAT": 460,
    "e,</w>": 461,
    "ked</w>": 462,
    "ause</w>": 463,
    "tion": 464,
    "mon": 465,
    "gu": 466,
    "alax": 467,
    "who</w>": 468,
    "says</w>": 469,
    "Galax": 470,
    "years</w>": 471,
    "Galaxy</w>": 472,
    "ound</w>": 473,
    "girlfriend</w>": 474,
    "we</w>": 475,
    "Trump's</w>": 476,
    "boyfriend</w>": 477,
    "fin": 478,
    "ite</w>": 479,
    "sel": 480,
    "shi": 481,
    "201": 482,
    "does</w>": 483,
    "sm": 484,
    "ying</w>": 485,
    "ob": 486,
    "Al": 487,
    "up": 488,
    "ess": 489,
    "New</w>": 490,
    "all": 491,
    "like</w>": 492,
    "UPDATE": 493,
    "fir": 494,
    "ard</w>": 495,
    "friend": 496,
    "go": 497,
    "6</w>": 498,
    "/f]</w>": 499,
    "how</w>": 500,
    "ook</w>": 501,
    "Ex": 502,
    "att": 503,
    "N:</w>": 504,
    "they</w>": 505,
    "should</w>": 506,
    "ie": 507,
    "ight</w>": 508,
    "ix": 509,
    "Sam": 510,
    "no</w>": 511,
    "we": 512,
    "usb": 513,
    "/m]</w>": 514,
    "so</w>": 515,
    "being</w>": 516,
    "Samsun": 517,
    "any": 518,
    "because</w>": 519,
    "HN:</w>": 520,
    "As": 521,
    "ep": 522,
    "leg": 523,
    "aid</w>": 524,
    "Update": 525,
    "their</w>": 526,
    "az": 527,
    "Ch": 528,
    "thin": 529,
    "used</w>": 530,
    "back</w>": 531,
    "F</w>": 532,
    "F)</w>": 533,
    "Un": 534,
    "Com": 535,
    "au": 536,
    "of": 537,
    "now": 538,
    "...</w>": 539,
    "M</w>": 540,
    "found</w>": 541,
    "kin</w>": 542,
    "M)</w>": 543,
    "husb": 544,
    "\"My</w>": 545,
    "y,</w>": 546,
    "mar": 547,
    "Samsung</w>": 548,
    "into</w>": 549,
    "ans</w>": 550,
    "able</w>": 551,
    "(3": 552,
    "ght</w>": 553,
    "more</w>": 554,
    "sec": 555,
    "ning</w>": 556,
    "wife</w>": 557,
    "inv": 558,
    ";</w>": 559,
    "Why</w>": 560,
    "month": 561,
    "s\"</w>": 562,
    "En": 563,
    "4</w>": 564,
    "amp": 565,
    "work</w>": 566,
    "to": 567,
    "Plus</w>": 568,
    "bam": 569,
    "ail</w>": 570,
    "thre": 571,
    "He</w>": 572,
    "fe": 573,
    "know</w>": 574,
    "Le": 575,
    "him</w>": 576,
    "S8</w>": 577,
    "ial</w>": 578,
    "comp": 579,
    "lu": 580,
    "US</w>": 581,
    "son": 582,
    "most</w>": 583,
    "comm": 584,
    "AA": 585,
    "day</w>": 586,
    "sen": 587,
    "Mac</w>": 588,
    "without</w>": 589,
    "ploy": 590,
    "Sc": 591,
    "House</w>": 592,
    "tw": 593,
    "riv": 594,
    "ant": 595,
    "bre": 596,
    "s:</w>": 597,
    "heckin</w>": 598,
    "wit": 599,
    "K</w>": 600,
    "ser": 601,
    "Bo": 602,
    "min": 603,
    "y.</w>": 604,
    "while</w>": 605,
    "some</w>": 606,
    "made</w>": 607,
    "U</w>": 608,
    "bi": 609,
    "Do": 610,
    "dog": 611,
    "husband</w>": 612,
    "One": 613,
    "tel": 614,
    "Now</w>": 615,
    "Russia</w>": 616,
    "inter": 617,
    "9</w>": 618,
    "ship</w>": 619,
    "vide": 620,
    "ue</w>": 621,
    "s?</w>": 622,
    "boye</w>": 623,
    "cr": 624,
    "ace": 625,
    "ann": 626,
    "Wor": 627,
    "10": 628,
    "first</w>": 629,
    "s'</w>": 630,
    "Pix": 631,
    "ty</w>": 632,
    "sof": 633,
    "t's</w>": 634,
    "A]</w>": 635,
    "make</w>": 636,
    "me": 637,
    "We</w>": 638,
    "You</w>": 639,
    "gh</w>": 640,
    "Pro": 641,
    "ary</w>": 642,
    "think</w>": 643,
    "ote</w>": 644,
    "We": 645,
    "vv": 646,
    "+</w>": 647,
    "iv": 648,
    "\"I</w>": 649,
    "cla": 650,
    "White</w>": 651,
    "UPDATE]</w>": 652,
    "[1": 653,
    "Apple's</w>": 654,
    "ounc": 655,
    "pay</w>": 656,
    "It</w>": 657,
    "people</w>": 658,
    "11</w>": 659,
    "Ac": 660,
    "akes</w>": 661,
    "estig": 662,
    "se": 663,
    "Air": 664,
    "Amaz": 665,
    "down</w>": 666,
    "esn't</w>": 667,
    "ful": 668,
    "X</w>": 669,
    "ref": 670,
    "atch</w>": 671,
    "adv": 672,
    "ws</w>": 673,
    "didn't</w>": 674,
    "OnePlus</w>": 675,
    "Qu": 676,
    "Ad": 677,
    "pic": 678,
    "apps</w>": 679,
    "ker</w>": 680,
    "t.</w>": 681,
    "illi": 682,
    "jec": 683,
    "months</w>": 684,
    "way</w>": 685,
    "De": 686,
    "offic": 687,
    "%</w>": 688,
    "It's</w>": 689,
    "Ph": 690,
    "ft</w>": 691,
    "ru": 692,
    "fam": 693,
    "going</w>": 694,
    "ations</w>": 695,
    "ble</w>": 696,
    "bro": 697,
    "again": 698,
    "ual</w>": 699,
    "would</w>": 700,
    "Be": 701,
    "legal</w>": 702,
    "Pixel</w>": 703,
    "President</w>": 704,
    "Face": 705,
    "self</w>": 706,
    "ail": 707,
    "mov": 708,
    "tal": 709,
    "Inter": 710,
    "car</w>": 711,
    "H</w>": 712,
    "[25": 713,
    "/F]</w>": 714,
    "can't</w>": 715,
    "co": 716,
    "back": 717,
    "Bu": 718,
    "some": 719,
    "won't</w>": 720,
    "Sen": 721,
    "Obam": 722,
    "neigh": 723,
    "US": 724,
    "doesn't</w>": 725,
    "home</w>": 726,
    ".0</w>": 727,
    "Update]</w>": 728,
    "lord</w>": 729,
    "feat": 730,
    "yn": 731,
    "stu": 732,
    "mis": 733,
    "take</w>": 734,
    "iz": 735,
    "To</w>": 736,
    "really</w>": 737,
    "usic</w>": 738,
    "blic": 739,
    "car": 740,
    "Mar": 741,
    "Russian</w>": 742,
    "fren": 743,
    "/f)</w>": 744,
    "/M]</w>": 745,
    "employ": 746,
    "tur": 747,
    "als</w>": 748,
    "ices</w>": 749,
    "&amp": 750,
    "V</w>": 751,
    "For": 752,
    "sour": 753,
    "pre": 754,
    "te": 755,
    "Google": 756,
    "every": 757,
    "Amazon</w>": 758,
    "He": 759,
    "ind</w>": 760,
    "ai": 761,
    "ic</w>": 762,
    "own</w>": 763,
    "him": 764,
    "Gir": 765,
    "down": 766,
    ",00": 767,
    "ons</w>": 768,
    "house</w>": 769,
    "child</w>": 770,
    "ans": 771,
    "having</w>": 772,
    "Facebook</w>": 773,
    "only</w>": 774,
    "I've</w>": 775,
    "Can</w>": 776,
    "troduc": 777,
    "much</w>": 778,
    "ia": 779,
    "getting</w>": 780,
    "Should</w>": 781,
    "[UPDATE]</w>": 782,
    "trying</w>": 783,
    "AP": 784,
    "iew</w>": 785,
    "&amp;</w>": 786,
    "alls</w>": 787,
    "'re</w>": 788,
    "Em": 789,
    "[23": 790,
    "[24": 791,
    "act</w>": 792,
    "sy": 793,
    "person": 794,
    "ns</w>": 795,
    "before</w>": 796,
    "Not</w>": 797,
    "left</w>": 798,
    "investig": 799
  }
}